/**
  ******************************************************************************
  * @file    network_data_params.c
  * @author  AST Embedded Analytics Research Platform
  * @date    2026-02-10T23:54:28+0300
  * @brief   AI Tool Automatic Code Generator for Embedded NN computing
  ******************************************************************************
  * Copyright (c) 2026 STMicroelectronics.
  * All rights reserved.
  *
  * This software is licensed under terms that can be found in the LICENSE file
  * in the root directory of this software component.
  * If no LICENSE file comes with this software, it is provided AS-IS.
  ******************************************************************************
  */

#include "network_data_params.h"


/**  Activations Section  ****************************************************/
ai_handle g_network_activations_table[1 + 2] = {
  AI_HANDLE_PTR(AI_MAGIC_MARKER),
  AI_HANDLE_PTR(NULL),
  AI_HANDLE_PTR(AI_MAGIC_MARKER),
};




/**  Weights Section  ********************************************************/
AI_ALIGNED(32)
const ai_u64 s_network_weights_array_u64[28339] = {
  0x3d1ea2a53dcfc6d3U, 0x3d8a3f4b3bc49e57U, 0x3e031b8c3d37213dU, 0x3c9249723ca1e672U,
  0x3d0827e23d065b04U, 0x3dcc67db3dcbed25U, 0x3e0cd76e3e442e8aU, 0x3b98e5ca3d5d357cU,
  0x3d6abac83da9d1baU, 0x3dac2dc73deceb97U, 0x3dc283633e51b57cU, 0x3b726855b7f4b85fU,
  0x3d33c5ee3d34ed0bU, 0x3de786413db61daeU, 0x3db1d3e23d1808bfU, 0x3e122d773c28f89dU,
  0x3d1225983dafc972U, 0x3ddf25823b251d90U, 0x3daa28ff3e3d3dc0U, 0x3e4055543e2fada5U,
  0x3e3329ca3e2f44e3U, 0x3cbf89633e3831b6U, 0x3e34e26e3c05d1dcU, 0x3d59e66f3db60679U,
  0x3d3ff9f13df1b1f3U, 0x3d2fb011bcf776e8U, 0x3e1079dc3e090828U, 0x3dddbc9c3db251b9U,
  0x3db7c4f13c111915U, 0x3c40a2a73d98dbb0U, 0x3dcab90abc54aedbU, 0x3d98f59f3e042a86U,
  0x3d2f6b423e475611U, 0xbd1c80d13e2dff49U, 0x3cf6150a3d62a1adU, 0xbc97a0a93d98b0aaU,
  0x3df00f5c3e294833U, 0x3d14aa1b3de626e0U, 0x3e3e4a183e054e83U, 0xbbb8ee153e13553cU,
  0x3e300ae33d8a24f7U, 0x3dd07b8b3e4d23ebU, 0xbcabf29d3df97192U, 0x3ced86863cce286cU,
  0x3e1b7e4f3e0e82bcU, 0xbd2ce8cb3e1235c0U, 0x3cf631663dd8d434U, 0x3e3697763d66d39bU,
  0x3d4647513d6b0f9eU, 0x3ce61ce73e0c3431U, 0x3cadc0823ce9b886U, 0x3e48e6c33e2093e3U,
  0xbd1228093dfb2b1dU, 0x3cbd3f1d3e00d783U, 0x3c492e973d96da56U, 0x3e1c3baa3dfe5fe3U,
  0x3e0e824a3ddd29b6U, 0x3df08e463daca8b4U, 0x3e2a45303e0ff398U, 0x3de5a2fc3e2debe1U,
  0x3c4aaee73e256a90U, 0x3e33faef3e10e775U, 0x3d021d483dde9504U, 0x3d9ba6943bbfb985U,
  0x3e1a993bbd27d08dU, 0x3d9513fa3e24dfc8U, 0x3d3cd5693db583baU, 0x3dc948ac3bee558dU,
  0x3d932701ba02a6daU, 0x3e4b74193d31b5d1U, 0x3d8091993b3d7e28U, 0x3e47f997bbe58a6bU,
  0x3d8fda553e2c6191U, 0x3dec829c3e2a6998U, 0xbbd6c9ac3e298175U, 0x3d0a56bc3e40ba76U,
  0x3e05c292bc04052dU, 0x3d2cb9debbc61ae9U, 0x3c4d38653e30ee05U, 0x3ddc99133e2d9dd2U,
  0x3ded678c3e0181e2U, 0x3e23011f3d274858U, 0x3dedf2433d39f3acU, 0xbd285b9a3e0f7577U,
  0xbca920d33d5f24ddU, 0xbcbc767a3e26c80cU, 0x3dc8dfbd3c8d7447U, 0x3c8458673e2af8e1U,
  0x3dbdad7b3d857a06U, 0x3db9fc743be9cb72U, 0xbc2b526fbc6e34d6U, 0x3b1f0d003dc8a0beU,
  0x3e27ef163d8f7a55U, 0x3d60937b3d6a070cU, 0x3e19bc793e0d6d6cU, 0x3e369d6f3d2a41f8U,
  0x3c7886543e337316U, 0x3e1f05933d4dce03U, 0x3e449ae3bcaaf068U, 0x3cc68706bc7f2b60U,
  0x3d77f9b5bb9abeb9U, 0xbcde8ea9bd26911cU, 0xbe1c8035be0dc28fU, 0x3c519a9bbd2f6e9aU,
  0xbe0c3205bde14d38U, 0x3cefbdb5bce9e97aU, 0xbd71e2a93cf577dbU, 0xbe1120683d995d74U,
  0xbd922cee3c998101U, 0x3cca78bd3d60e18eU, 0xbd8263bebdcc8aefU, 0xbdf1121fbcd5d8c5U,
  0xbe086b67bd632958U, 0xbd5988f4bd19397cU, 0x3bf699a13b4d286fU, 0xbe137b75bdb33a40U,
  0x3c172c4abca78ae6U, 0xbe0a36a2be18bd37U, 0x3d73d6bbbdf84541U, 0x3d093de1bb6aa657U,
  0xbdcf04bebdab5535U, 0xbd9ea26f3cece412U, 0xbe0b25553d955a99U, 0xbc8d0dedbdbf241bU,
  0xbcbfddbebd9b1323U, 0xbdd98245be0ae452U, 0xbdb690c8bded17b8U, 0xbe0d90dabcb95f02U,
  0xbc9621e8bdc84a8eU, 0xbe1d90c838abee01U, 0xbd124d893d1a93c1U, 0xbd798ba7bdaaba03U,
  0xbdc447cdbe012554U, 0xbbe0bd21bdaf95b5U, 0xbd81d7d1bc78c7a2U, 0xbcae7abcbcc1e194U,
  0x3d6d7c833d143720U, 0x3d7d0fc5be0ecf66U, 0x3d152f64bde50079U, 0xbd24bdd2bdb29c27U,
  0x3d4383b9bdd2784cU, 0xbd6da514bdf34a45U, 0xbdc95edfbd44b117U, 0x3d863095bd59cd60U,
  0xbde7c28dbe11ba0dU, 0xbdbf115ebccf905cU, 0xbdd7b2b1bdf53a69U, 0x3b1213603ceccdaeU,
  0xbde6c2d9bd6186caU, 0xbe037fccbde646bdU, 0xbc92d3e9bde218c4U, 0xbe164e3e3d9310b5U,
  0xbdef6b76bd3dbf8bU, 0xbe0f200a3d2afa6bU, 0xbd3d8a37bdd10c7eU, 0x3cdcbaabbcf36eafU,
  0x3d593a7d3d805e59U, 0xbd67529abda3a28eU, 0x3cc0ed9fbc232e8aU, 0x3cc1955dbdac7ebbU,
  0xbd177113bd6e10f9U, 0xbca853f0bda84dbfU, 0xbde70d3dbd9d8ba3U, 0xbba7c0e2be0f2f93U,
  0xbe230694ba4c525fU, 0x3d54be6abe01cc9bU, 0xbd7443f7bd1ccc13U, 0xbe1aa1d8bd205a5bU,
  0xbd595f6abd72829aU, 0xbde64672bdde21d3U, 0x3d3598b5bcd4e44eU, 0xbda880a13d8e91cfU,
  0xbd052ead3c3e3348U, 0xbe0881bf3c748aa4U, 0xbe21d173bd6b4fd7U, 0xbdcc991a3d872a77U,
  0x3d44c6fb3c907187U, 0x3ae5e7f1bd90a025U, 0xbcecda813d3eb7beU, 0x3b658aecbdee3bebU,
  0xbdcb46493d706009U, 0xbdb8642fbce4957eU, 0xbe1caf473caf59b9U, 0xbdd5e239be22b822U,
  0xbdde51e2bdf35bb0U, 0x3d117f71bced09c6U, 0xbdb5c12abdfc6fe1U, 0x3d45eaefbe0a7a56U,
  0xbd227e893cd70cebU, 0xbd7f0788bd757b06U, 0xbd0fa1ec3d0d166eU, 0xbc5cda6dbda5804cU,
  0xbddc64483d667ef2U, 0xbde12c593d29ed0eU, 0x3d3505f4be22c685U, 0x3d08cfbd3d055f52U,
  0xbdeb580bbda3ecc4U, 0xbe05586abe112dfaU, 0xbd0c04683cabbdf3U, 0xbdd70f68bdd9c9aaU,
  0x3d9ec3913d69c5b9U, 0x3c3c4111bc22a6daU, 0xbd90656fbc9e7dd0U, 0x3cd99537bc2257ddU,
  0xbca97243bc4fb026U, 0xbbb94759bd286c83U, 0x3cff5ccbbdc83be5U, 0x3d64e3e4bdc66904U,
  0xbda0638ebdb8ea4aU, 0xbd97d43a3d95bfc1U, 0xbd83450b3d92e9e7U, 0xbde930803c87eb87U,
  0xbd96f1cfbdbb7403U, 0xbdf402f13d8f22d0U, 0x3d87c047bd21d52fU, 0x3dce1d78bcbd5720U,
  0x3caa19733d81ad00U, 0x3cea07d5bde7a87cU, 0xbdbf650a3d4f6728U, 0xbd99871b3d2d3f7eU,
  0x3de33a2abd1d7731U, 0x3d98a6243dab6e43U, 0x3cb07fe73cd358a3U, 0x3d66aa183d6e3518U,
  0x3d9f7409bd8eebe9U, 0xbde7b1d5bdfabd6aU, 0xbd2fd911bd4c4c95U, 0xbdb5ab29bd096b0bU,
  0x3c6f54ef3daaaa14U, 0x3c365a183d122569U, 0x3c891c933cf478b2U, 0xbd8f62e6bda4ba4fU,
  0x3d4d3cbebc8539a8U, 0x3daa4d3bbd523b2aU, 0xbdf369efbdf9d657U, 0x3dbcfa343ddc7917U,
  0x3dc098f23ddea2d7U, 0xbd311f87bd9c4677U, 0x3d5092fe3ce3b04fU, 0xbdb74bb7bbe7898cU,
  0x3d7006aa3da69201U, 0xbc5cbb313d96b74cU, 0x3bf2669cbdf09ffdU, 0x3d1977a9bd63f39fU,
  0xbdf4c715bb933758U, 0xbd8911a73dc950c1U, 0x3d2af336bce39470U, 0x3d476c6ebd88ef81U,
  0x3da97d57bd0ae440U, 0x3dbb38a63c8e6908U, 0x3bde103c3dd6a285U, 0x3ddd3b47bc612cebU,
  0x3d848d933d87e6b1U, 0xbd73d5e4bd9def56U, 0x3cf2b3f839ad21faU, 0x3d10f2eebdd1cfe2U,
  0xbd8695dbbd583b80U, 0x3d71e3efbd8fe80cU, 0x3d11cdc1bc82133cU, 0x3d3ff4263d9ce041U,
  0x3b492f093d85d0fcU, 0x3cfdb1f5bdf96405U, 0xbd2a89d83d653f8aU, 0xbd95b0ea3da67d61U,
  0xbd681048bd0e6d80U, 0x3d842ac0bdf96299U, 0xbc97f002bdc67410U, 0xbdb50c7ebd831934U,
  0x3da7e59ebddf1f57U, 0x3dd4db23bd036e0fU, 0x3a27a55d3d7bb7baU, 0xbda429683da302b3U,
  0xbd409fc03d6662f1U, 0x3d4980373c688156U, 0xbd80bfc33cba362bU, 0xbd32f5a4bd50f54bU,
  0x3d85b39f3d8fbd15U, 0xbd2018013dc4f0e0U, 0x3c34dfb73db6ed0dU, 0x3b7ee6573db065cfU,
  0xbcee17733d9dda9cU, 0xbd99c85bbdcc60dfU, 0x3db4a22abcfcf394U, 0xbde24c11bd12d605U,
  0x3dd515a53b433f1dU, 0x3d3435ea3d3dd819U, 0xbd0ab676bdb46360U, 0xbd74b40dbdcae368U,
  0x3dabeb2d3de0df93U, 0xbda2be90bddfa9a1U, 0x3c19a6f3bd417429U, 0xbdd47ebe3cc30a6cU,
  0xbdce1c663da5dbd8U, 0xbd36a65d3dd98a21U, 0xbdc0df58bda00a0eU, 0x3db3ca12bd1614e8U,
  0xbd6408743c5dea31U, 0xbd8695103de3b296U, 0x3d86942cbc9f6f18U, 0xbdbd35383d1d308aU,
  0x3ccf69fcbd809ba1U, 0xbd9ed86c3d125aecU, 0x3c1b57493d0e0913U, 0x39c673dcbc809edaU,
  0xbdef8e093d12ce3fU, 0xbdcb80bbbcd4e1a3U, 0xbdd9b94b3b0081d5U, 0x3ddd0448bdb3a10cU,
  0x3dcae51b3d8cd2b8U, 0xbdd27aefbceb2b7bU, 0x3c36f323bd0ef8a7U, 0x3d78a51d3dd7f8faU,
  0x3d1ab3cabd0ea0aeU, 0x3c511a22bd9dcee5U, 0xbc11b23b3dce1ab7U, 0x3d7f2627bdf2c1c8U,
  0xbdac7155bdf52e2dU, 0xbda29465bd62be17U, 0x3dc7bc60bdbf67c2U, 0x3d1f0851bdb3847fU,
  0xbd8550be3ddc6f50U, 0xbded8c7c3ddb2a61U, 0x3c915b79bc254278U, 0xbc26aeb1bd22735dU,
  0x3cf3193cbd1893ffU, 0x3d1584dc3c9e3436U, 0x3d4534a03dc25ca1U, 0x3da2fc36bd73477cU,
  0x3dc0dc37bcc3ddc9U, 0xbda374bebdfa63fdU, 0x3da88cbfbcdc086cU, 0x3d8aa7e0bdf5bf54U,
  0xbcc6f27f3de380f6U, 0x3d47eb7c3d6d1b7fU, 0xbd2d73583d6426ecU, 0x3c9a0acdbd20d62bU,
  0x3c997ac7bd7e5bb0U, 0xbd7ca352bd9b8cf8U, 0xbda7e0c43c9d4bd7U, 0x3dc9516ebd1945b7U,
  0x3c86d7163dae34faU, 0x3cd4581c3d84ae54U, 0x3cf140bebcd761d0U, 0xbd4149fb3dd6a4ceU,
  0x3db029a0bc7f9d51U, 0x3bc495553dbd81c1U, 0xbd41ea97bdc5c19cU, 0xbcec86713c6cfce3U,
  0x3db62cb6bdd91397U, 0x3d37dd75bd83d2daU, 0xbdad86eabda35d83U, 0xba5e84323d941ecaU,
  0xbde51905bddd9243U, 0xbd950f6c3dad3403U, 0x3d9b405c3ca89007U, 0x3cba0e3e3d894b22U,
  0x3d7a12353ca032a9U, 0xbd36f8b73dac1b90U, 0x3d947d493d382f63U, 0xbb9bad563dd1855dU,
  0x3c7ba56c3cfb2b1bU, 0x3dbc0dd8bd2e2d1aU, 0xbd791c0fbd08f36eU, 0x3db522443c404c9fU,
  0xbccde94a3bbb9abaU, 0x3dba58953da996cfU, 0xbd14bf06bd758799U, 0x3c557816bc20df8dU,
  0xbcb2294bbdca1590U, 0xbdec2405395d6644U, 0xbd055f77bda4d01dU, 0xbd4c61713c9e5163U,
  0xbd05e2dabd3e916cU, 0xbd14c9383dc9e102U, 0xbdb934283d9086d4U, 0x3d29c791bdb73ffbU,
  0xbd881643bd592657U, 0x3b360c0ebdb436cbU, 0xbdd7a72b3ccad7d8U, 0x3d7a482b3c6455abU,
  0xbd2f0c65bd95b548U, 0x3dc092eebd984c7bU, 0x3dc79429bdef950bU, 0x3d8b48bebcb112caU,
  0x3ac95fb03cf17336U, 0x3d78d225bd960554U, 0xbda0d2ddbdc72ccdU, 0x3d15290fbdea31c7U,
  0x3dd2175cbdcdf1afU, 0x3c3c3d12bd531e8fU, 0xbdbf2ed5bcd3df94U, 0x3d53295c3d99b744U,
  0x3cbbca75bdb6822bU, 0xbdae135d3dbe6fa1U, 0x3d688550bd618154U, 0x3d90b7b3bd8f5ed7U,
  0xbc2a315c3de2b2e2U, 0xbdecd8983d6299a3U, 0xbd257229bd49ce7aU, 0xbd610b493de4f8eeU,
  0x3e200e2b3df682f4U, 0xbd27ec063e09b0e7U, 0xbc89f86b3d8e8d7cU, 0x3d129bca3e12f73fU,
  0x3e2500183e349ec9U, 0x3dfa45973e22018aU, 0xbca89221bc1d59f1U, 0x3dab9508bca481a6U,
  0x3e30796fbc3baf8cU, 0x3da0f2adb99edaf6U, 0x3db3ef473c21238eU, 0x3c1c3dd53e393707U,
  0x3e36f3fe3e0d3308U, 0x3e39bfb33dce43a6U, 0x3d5d088e3e1d7021U, 0x3e1986253d830202U,
  0x3d9f30353d3b266aU, 0x3d275dda3d74b1c4U, 0xbd335afa3dc80766U, 0x3e35924e3e1d9734U,
  0x3a0244363e466eaeU, 0xbcdcae96bc4f9cf8U, 0x3c293eb83df56db5U, 0x3dded1d03e288574U,
  0xbccb0825bcddca79U, 0x3df4fd04bc5b9febU, 0x3da89e393cd69debU, 0x3da583343c713cf9U,
  0x3e35fad63d6f1473U, 0x3e1ce2febb80d264U, 0x3df62c483e2f6928U, 0x3d375ed73e2d4ac6U,
  0x3a16e4db3d27b853U, 0x3e15285fbce2ed21U, 0x3d72e4dd3d8d5fc2U, 0x3dac13603ae746b4U,
  0x3d7065ee3d5bf5adU, 0x3dd2b90e3de14ff9U, 0x3c896176bc4802c9U, 0x3da122a23daa214bU,
  0x3d81ad173d25e07bU, 0xbcf68b7b3e0c230aU, 0xbd341e5abcda34f3U, 0xbd26ce3f3a8c83c6U,
  0x3da2c5ad3d7d9395U, 0x3e1bf2dbbd03f241U, 0x3e03180cbbe404dcU, 0x3d1013d03e084484U,
  0x3e053f933c1989ddU, 0x3e0b455f3b20d169U, 0x3a2cd63a3d707fd5U, 0x3df6a77abd09b56bU,
  0x3dfb7c293dda2254U, 0xbd0092dd3da407b7U, 0xbd6905573c5dd442U, 0x3d6549f13deb706eU,
  0x3db9a7b73daef066U, 0x3de0e5ad3e28befcU, 0xbbfdd5843d8e154bU, 0x3e07b3043e277059U,
  0x3d9724483cba4255U, 0xbcfd9efdbce4c5acU, 0xbb366b253d97dfeaU, 0xbd323c1f3c90c900U,
  0x3da4be5d3cbaeb28U, 0x3e0034b33cbf753dU, 0xbd658fadbd6f3da5U, 0x3c09632cba700016U,
  0x3df0a0c33e250740U, 0x3d17d2f13d89a19bU, 0x3e1af3d03e0a3c3fU, 0x3ba02841bc0d470fU,
  0x3da06bcc3dbb9dc5U, 0x3d8408423d86bc28U, 0x3e0dcb6d3e054da6U, 0x3e295790bcb24f75U,
  0xbd183525bc1f1814U, 0x3d4b9a323d556845U, 0x3badf45a3d82871eU, 0x3d9d25be3d23a7ffU,
  0x3c611e2b3d990a67U, 0xbcc18e683df04b33U, 0x3db89ad93d4f85feU, 0x3cacd2ce3e05e4f3U,
  0xbd0c3b413d26b618U, 0xbd34f14c3c6125f3U, 0xbcb2891a3e1f4036U, 0x3da3cd2d3e322654U,
  0x3e273c9a3cae7463U, 0xbab731963db04e70U, 0x3e0725d63db4a0d4U, 0x3e2fc9cb3dbc98f9U,
  0x3e4156fd3c7c0f6eU, 0x3e2c3f603cc644c0U, 0x3dbbc1ef3dbce022U, 0x3dadef923d4f6ff7U,
  0x3e1807a0bce0f524U, 0x3dd387c83d45643aU, 0x3de993723e1159a5U, 0x3e286ff13dafa9eeU,
  0xbd5e9107be11b8b5U, 0xbcb9065cbd5bfd43U, 0xbddb1f75bb77c390U, 0xbe0e4ab1be0378b5U,
  0x3cfce17fbd70ce68U, 0xbd962aa83d694f6eU, 0xbdcf369dbd44faf3U, 0xbdc7bbef3b53a7d9U,
  0x3d4c36e7bde8c6cdU, 0x3d59fdacbe010b1dU, 0x3d83c5e4bde217c6U, 0xbe178e8cbdb58f12U,
  0xbd6e931b3cdb335eU, 0xbd3af7cb3d959f7bU, 0xbccdc590bdeab60cU, 0xbe07f6993d207aefU,
  0xbd91a0a6bcd581dcU, 0xbdb760d6bde0ef28U, 0xbd561c4a3c376b85U, 0xbd042655bde850e3U,
  0xbe184971bdb1522fU, 0xbda00b3dbda61b7dU, 0xbd6ab1293d717ff8U, 0x3b2f6f493d8e8d6eU,
  0xbda47eeabdaf4ff9U, 0xbe186cafbe0b96a0U, 0xbd9756ca3d384722U, 0xbc7b1799be0f4bf9U,
  0x3ccfbad6bdefe4e6U, 0xbd680c37bdece226U, 0x3c3aed303b274a1bU, 0x3d673425bdac46d9U,
  0x3c17bd073da6e1b8U, 0xbd8c7f44bdb9d6feU, 0xbe091128bcc8d2f2U, 0x3d0abda23ca7f7afU,
  0xbe0240ba3cac64d4U, 0xbe0040bd3ce83fe7U, 0x3bcfbb11bdec4d3cU, 0xbdaf558f3d941611U,
  0xbd9694b9bd95b751U, 0xbd8e43f2bd49e9f5U, 0x3d84ff21bdb72979U, 0xbda8c5d13d955a31U,
  0x3b6551b33d8dfc3fU, 0x3d50a9c7be028e3aU, 0xbd41ffeabd3f892aU, 0xbd27b2f9bdb81f34U,
  0x3d99abbebdfe6848U, 0xbe19a6e43c826cd5U, 0xbdd5948c3d7da3dfU, 0xbd2b08a13c203e28U,
  0xbdcc3580bdcbe0d3U, 0xbe13f96ebe18ac66U, 0xbdaa1aa8bdb892b2U, 0xbdb4ce4c3c3fc588U,
  0x3ab2c86d3cdffbe3U, 0x3d1788cdbdc9f512U, 0xbdbebdbcbc03f0d0U, 0xbd6b9f55bd68eed8U,
  0xb85442843d45f47eU, 0x3d07e2ca3b9e35ceU, 0x3d8a5099bdec6de8U, 0x3cc8d329bd8907b9U,
  0xbdae2764bdf6417eU, 0x3d2826dbbb1502bbU, 0xbde6f292bdbd048aU, 0xbe01734abdec0afbU,
  0xbcd53c4c3c9a914dU, 0x3d5971c8bc384e9bU, 0xbd780e2c3c880453U, 0xbe163be63c42ba8fU,
  0xbe000806bdb653a6U, 0x3c10139abe0d2c50U, 0xbdccdc09bd609bb0U, 0xbdbb5e913cce8705U,
  0xbdfb861d3d101333U, 0xbdce6f6fbd8a2713U, 0x3d5350d13a1880e8U, 0x3c8f66ec3d326a0aU,
  0x3d549b4dbdc443eeU, 0xbd76eb0dbe0130bfU, 0xbd7f4d90bdf7e471U, 0xbe0f6f95bdff030fU,
  0xbdf51e1e3bec1281U, 0xbd472e6e3d712818U, 0x3d91d142bdb1beabU, 0xbe123549bce7b454U,
  0xbe132e61bd5b563fU, 0xbe037552bdb27190U, 0x3c590b40bde84127U, 0xbd998b8abd7663ccU,
  0x3d39c2b33d75848dU, 0x3cbfd519bd6d4dc2U, 0xbd2d2ce9be054c19U, 0xbd473d5d3d0fb540U,
  0xbdb86fc33d3e5afdU, 0x3c3b5e7ebe1d970dU, 0x3d82dcbebdb0c8fdU, 0xbc5a4272bd7aa1a8U,
  0x3d7b6035bd528788U, 0xbc9c25b83dbf0a37U, 0xbddb7557bdc1cd18U, 0x3d950aae3cc8775aU,
  0x3c3d9a4dbd7e060aU, 0xbdeb9f6dbd7d638eU, 0x3c8f3d84bd06b9c6U, 0xbc447584bd402507U,
  0xbd716fb33d16fc6dU, 0xbcd07a81bdf8afe2U, 0x3d58b009bd35b3e3U, 0xbd3052f43d922d44U,
  0x3d4e7f7bbdaa7e2fU, 0x3d8712e5bdf4873dU, 0x3d2d77163d5da085U, 0xbd895f74bdecdb47U,
  0xbde88c3bbe02787aU, 0xbd124b12bd4188ccU, 0xbca7d3213cc5c291U, 0xbd6117c9bd909cb0U,
  0xbc2895d43db1ea02U, 0xbd855a21bbbb2c43U, 0xbd91fabe3cf0cf3dU, 0xbe065f613d1c3799U,
  0x3d94695c3dc581d8U, 0x3d9aab2cbdbd1cc5U, 0x3d3ced81bd69f407U, 0x3d1ded203da157d4U,
  0x3d08286c3d98a857U, 0x3cee9844bcfb9ca0U, 0xbd53f239bc9beb88U, 0x3d978dcf3c500637U,
  0xbe02c1e1bded0e11U, 0xbd1549323c633783U, 0x3ce2e6abbdcdf7cbU, 0xbd9a1f883bc7bd11U,
  0xbddd72423d1a7c39U, 0x3dd65ff73d821c23U, 0x3d3c69363dcdf051U, 0x3d8c0df03d617722U,
  0xbdd6a6dabd16596bU, 0xbde2c515bcc0a189U, 0x3db18561bc13f61eU, 0xbb2747c8bbd2d88aU,
  0xbd6e3c1cbd85fe78U, 0x3c618270bd2da470U, 0x3dcf82febd4003deU, 0xbd6f9ef63c3a59acU,
  0xbddca39ebd8f3a0cU, 0x3d5f980c3d0b4a23U, 0xbce2517b3d9de8fdU, 0xbe0e8dcf3cfb24c7U,
  0xbe084e993d430579U, 0x3dc079f73da6ab38U, 0xbdca8599bd9ce66eU, 0xbd2cb26cbc2017e7U,
  0xbdec4d31bc48a4e1U, 0xbd484613bd5f4d06U, 0x3bc64d30bd3f106aU, 0xbdb1438e3d521afdU,
  0xbdf9caedbdc53752U, 0x3dc33b823d8dce13U, 0xbbda3515bdc68037U, 0x3d212743bd87f295U,
  0xbda8020e3d8d0c1dU, 0x3cc76cb03b9ecdd4U, 0x3da415c63d233b12U, 0xbcc924c7bd825e83U,
  0xbda67cdabd6c5ef2U, 0x3dc7d9d13dc3f6f8U, 0xbe0b93833d47eda1U, 0x3da2a199bd188802U,
  0xbd802a073c79d199U, 0x3d79b5903d7f4fe7U, 0x3da05b283d169fc0U, 0xbdec9b953b511040U,
  0xbdd0d75ebda7b209U, 0xbc994ab73d03fb53U, 0x3ce9be99bce1fb3eU, 0x3dc88b653d2288beU,
  0xbb63453ebdca81e1U, 0xbc5ef4bfbe097150U, 0x3d3cfd813d6759fdU, 0x3da149ddbd76e62aU,
  0x3db0d823bdb44f74U, 0x3d56c568bd1c1a2cU, 0x3db3db32bd7196d2U, 0xbb1c3976bd07fcadU,
  0x3dac8edebd85477cU, 0xbde18473bda0bf75U, 0x3d9563b33dadfca8U, 0xbdb678223d86a966U,
  0xbe029e213dbf7dc1U, 0xbc930aa33da43d34U, 0xbd9419fcbb810048U, 0xbda48e5ebd137ad5U,
  0xbd281b4abdb82e4bU, 0x3d6abf7bbdcebe1eU, 0xbd424e2d3ce6110aU, 0xbcef46753d1789b0U,
  0xbbaeaab2bca2ca6bU, 0x3de89846bcfab433U, 0x3dc3c670bcd068fcU, 0x3c609517bd5e6672U,
  0x3a8e9ea83c679ae2U, 0x3d981554bd35d7e7U, 0xbbb1a743bd369d69U, 0xbc9dc6b9bc75532cU,
  0x3cf9d4163d096b8fU, 0xbd93387ebddbdeacU, 0x3ce9a16f3d9249d6U, 0xbdd6fda1bdc5df8bU,
  0x3c4c2dc43d9ae173U, 0x3c2aed15bddc0e80U, 0x3b7b414fbdb07745U, 0xbd8df48c3dcc02ddU,
  0x3d65f1d5bccb0a85U, 0xbdc91dbb3d2c3f15U, 0xbd6ea496bd0ccdd8U, 0x3de69894bcd9db7cU,
  0xbbd5060d3d6a5ae1U, 0x3cdbcbdf3d48da1cU, 0x3d417d06bca201e1U, 0xbd978aff3d813c3eU,
  0x3d102b353ddde550U, 0x3bbcc23abdc809ddU, 0xbd9b2a753d243871U, 0x3c5206a83c656364U,
  0x3d87b66abddbd077U, 0xbd97932d3d269cc8U, 0xbd89974f3d07178fU, 0x3c7d6023b9f2eb1aU,
  0x3dd177cf3d35bdafU, 0xbc392070bd56ef04U, 0xbdb5ed06bd9d6b79U, 0xbda0076b3cf8a034U,
  0xbda43378bd80b40bU, 0xbb8129d2bbb3fca4U, 0xbbc1ddadbdb48041U, 0xbd3195e63dc64929U,
  0xbdc41ff93ca34582U, 0x3da3b57bbdc9994fU, 0xbd77e7dd3d79113eU, 0x3d206b543d1b2c7dU,
  0x3d5b75f43ce00c75U, 0x3ddfa20c3d9f4c7aU, 0xbd425928bcfa1690U, 0x3d5de1b13d8cd8c8U,
  0x3d04c112bcc0d4d5U, 0xbd9c1cbbbd65ea41U, 0xbdd128f0bd2232b8U, 0xbcc52a643bf8c3ebU,
  0xbdafe5be3d36ec94U, 0xbda086493d1b2625U, 0xbd269316bdcb1cccU, 0x3b06cdd8bc8e72b4U,
  0x3d9ba24dbcc57236U, 0x3dcf69a03c443d78U, 0xbb41c2a83b6476aeU, 0x3caed4523db4c793U,
  0x3ddb1079bd71a3a5U, 0x3daf97503dd35520U, 0xbdcd1f67bd20bbd4U, 0xbd8909913dd79f95U,
  0x3daa862abcf32427U, 0xbcef0c7fbd804555U, 0x3de8054f3d945f07U, 0x3dd7b8043de5711fU,
  0x3d768a75bc39852dU, 0xbcf3eb7c3c66719dU, 0x39fd51683d9d63f3U, 0x3d3cd0e03ddcf471U,
  0x3b3a6c883d8ebddcU, 0xbcf329513c2769ebU, 0x3cd8b0e1bc7b6423U, 0xbc0f67cabd5d79d3U,
  0x3dafcc923dc2cac9U, 0x3df00f4ebc83fa08U, 0x3d9f500f3d908f23U, 0x3de841813deb1c0eU,
  0xbc472a4fbdccda07U, 0xbdda486a3cf38a15U, 0xbd807c16bd76a82cU, 0xbc27e744bd70aa1bU,
  0xbdda1dd63c10c731U, 0xbdda6f473d1b9123U, 0xbd8f9e9cbc26ba1cU, 0x3d1085bbbdd2a07dU,
  0x3d7e2e5bbca52325U, 0xbd1863023da48f81U, 0x3d58fbfebd807bd7U, 0x3d31bbb4bd2df243U,
  0x3dd396fd3d20272aU, 0x3de872793b6a2b28U, 0x3d8fcbf33d4a3b40U, 0x3c9bce343d9fdc50U,
  0xbcba9c8cbdae473bU, 0xbd1055a53d814850U, 0x3d969304bd677b48U, 0xbc83757a3d1792ceU,
  0xbe05dc1f3c162949U, 0x3d737613bdb95594U, 0xbdbe9662be0037c1U, 0x3c1c8f133d8a4f00U,
  0xb93a4694bdb2f6f5U, 0x3d9404613c493cceU, 0x3d018c7d3bbb7dcbU, 0xbcec95763d614240U,
  0x3d89f0963ca02a3eU, 0xbd12c53a3d02f60aU, 0xbe11e09fbdac4ee0U, 0xbde8802bbe0b07d5U,
  0xbdffc272bd580b97U, 0xbe022f2abd56b261U, 0xbe1bae3c3d890c49U, 0xbd8ad5d03d01b632U,
  0xbddecc273caa1c98U, 0x3d1fe83c3d724784U, 0xbdf3d841bcf4ecaaU, 0xbe0a71c8bc5be41cU,
  0xbe1529efbd1d0d7bU, 0xbdaa1adabc1e2342U, 0xbd9cb021bd83c29aU, 0xbe071568bd6bdff5U,
  0x3cebce8bbe025fdeU, 0xbd8a6a123d5e9fe8U, 0x3d82d43a3cb7f5aeU, 0x3d3522843d5b2ee4U,
  0xbe053072be082059U, 0xbdf7859aba9046c1U, 0x3cbcfc54bda7470cU, 0x3c0f9910be2324c2U,
  0xbdbbd82abc89911fU, 0x3d4a131c3d1dbe19U, 0x3d8fe0f8bce47238U, 0x3d8d898b3cc0c58eU,
  0xbe06c88dbdba5331U, 0xbc84ca8b3d37f6a1U, 0x3ceffef4bdb8fc18U, 0x3c63e406be074392U,
  0x3d465a6ebda291faU, 0xbda5e184bdf761d8U, 0xbd6691c83d84a4aaU, 0xbdcccd59bd992ac0U,
  0x3d8bd22dbd381a1bU, 0xbd98a0b8bd67d0f1U, 0x3da25daebc72b0dfU, 0xbe10559cbd88983cU,
  0xbc10ed2fbd422aaeU, 0xbd326fe53bbc4dedU, 0xbd95be923c529becU, 0xbde2b9ccbc06ccdfU,
  0xbd448667be19487bU, 0xbd21d208bd2224ccU, 0x3d293794be03e951U, 0x3d80ce1e3c0b13b7U,
  0xbd09ab15be150bc4U, 0xbd375c10bd97c56aU, 0x3d42bdfc3d2d44d4U, 0xbdd2eb623d87b691U,
  0xbdecfb813c999dd6U, 0xbd8c0707be1ca4b6U, 0x3d2ff2a9bdf2af92U, 0xbd8cba4cbd8b065dU,
  0x3d4c2404be0780edU, 0x3da8f4cd3c9cc06cU, 0xbd11c6ccbdf39665U, 0xbdcf764c3a9f18edU,
  0xbd7a046a3c880325U, 0xbd1cfb59bded87f1U, 0xbd97130abd85097dU, 0xbdd4266a3c4549cdU,
  0x3d4afafe3d85d184U, 0xbe0052903ab372faU, 0xbe13ec27bd5ff13aU, 0x3d9d20443d998be8U,
  0x3cdfe006bde59f23U, 0xbd3cc6093cb099bcU, 0xbe082090bc5ab823U, 0xbd1f0d0b3c3cd1fdU,
  0xbc65bf02be11ef31U, 0x3c6a2563bdaea120U, 0xbdf2c714bd9b33d7U, 0xbdf89c5fbe1bb140U,
  0xbdb69ed7bdbcebc1U, 0xbdb86207bcd8f6adU, 0x3cd150cc3d57dbf4U, 0x39091e31bb97a227U,
  0xbddb61a5bcd74627U, 0xbd611114bdbfc142U, 0x3c40831e3d50447eU, 0x3d8a4f06bde90be1U,
  0xbc888a64bd556990U, 0xbe1bbb083c579954U, 0x3a1a55973d76fbd4U, 0xbd3aa856bde6efd9U,
  0xbd136a18bdf5f36aU, 0xbdd290ffbdc9832aU, 0xbb8c7f5c3d966505U, 0x3cd64a27bda25f57U,
  0xbd95e84fbdb9c233U, 0x3d0704b73d382e3bU, 0xbd63a9aa3d9750c4U, 0x3d029aca3e00a3d7U,
  0xbba98e4a3e005861U, 0x3d0f2e56bb613ba4U, 0xbcc6f4663d8d253aU, 0x3d48a2833dfe6918U,
  0xbd86d36ebc7b26cdU, 0xbd27cb57bdb4276bU, 0xbdbe14ca3db6f566U, 0xbda1e6c53d2c35bfU,
  0x3d7f74533d8d6ac6U, 0x3cf835ea3d5b7abcU, 0xbd30457abc7ba535U, 0x3df16d9f3df86d72U,
  0x3cccee943e0171fcU, 0xbdb9fe153d5b08eaU, 0xbd7d18c33d8a2c7eU, 0x3d947b55bd3f4559U,
  0x3d5f7aeebd8089f6U, 0x3c91fea6bdd30a18U, 0xbc80d1e33ddf10e1U, 0x3cd9de1ebc9ca298U,
  0x3d3fcea63b6fe792U, 0xbd9881a43c8d6f05U, 0xbc47c6563d24b236U, 0x3b43637bbc7d3e30U,
  0x3dfae387bd7c603bU, 0xbd93adec3dc42b07U, 0xbd6aca6cbd78df0dU, 0x3d838af03d44d4d1U,
  0xbc84fae03d984c07U, 0xbd57139e3db54972U, 0x3d7b40003d08c92cU, 0xbc2e2365bd18ee3dU,
  0x3dc0e2d83d27d1ebU, 0x3dcdd6433c99610cU, 0xbda5b3f6bdac38dfU, 0x3c398721bdbffd69U,
  0x3c50dbf93dca5fcbU, 0x3df2d25bbd84fd53U, 0x3dd18a5c3b303878U, 0xbdb8a60d3dee01e1U,
  0x3d7b3101bab4beffU, 0x3db1b945bd821c74U, 0xbd04876abda10602U, 0xbc2f31f4bb8858baU,
  0x3da782b93d062035U, 0x3d0c87e23d796675U, 0x3df64f373de5de2dU, 0x3dad8a253df4f440U,
  0x3cb8ba7f3d812192U, 0x3c4d056abd56137fU, 0x3de7ec773dbb126cU, 0x3d75457abaf7a80cU,
  0xbd8889223dc54f11U, 0x3dff062e3955cdefU, 0xbce4217f3d39fd01U, 0xbbc7c0e13d9f688fU,
  0x3db41a60bcfb5eb8U, 0x3cdbe24d3dad66caU, 0xbdca1ed23d44541bU, 0x3b2039c4bba19b2dU,
  0x3d3eca96bd7b1a4cU, 0xbd8cbde1bd820671U, 0xbd1abd8abdacdd89U, 0xbdbe48bd3de23d41U,
  0x3d5a7092bda04d2eU, 0xbd35fab53a9698c7U, 0x3d058136bcc47a19U, 0x3dbe5e593d9fc324U,
  0xbda936e23dcc2126U, 0x3aa6560ebd78aad5U, 0x3e01c0dfbdc94128U, 0x3d930c6c3dfa5071U,
  0xbd8d66e8bd8a6f98U, 0xbda4467cbcf7f07aU, 0x3ca49723bc417099U, 0x3d11cb01bc6d6736U,
  0x3df3bab93d87e4cdU, 0x3cfbad043decfd6aU, 0xbd67cce2bd3d61c0U, 0x3db117aabd4fdeadU,
  0x3bb23f8bbdaa279eU, 0x3ddc497c3d81c9a8U, 0xbd978b2cbb55e73cU, 0xbcf45da33e03d9e8U,
  0x3cc25339bcb4ca8cU, 0x3d46a63dbcafc8d5U, 0xbcb844cf3df6a0bbU, 0x3dd1a1033cb9e1b0U,
  0xbd8321083daa7c52U, 0x3daa5129bd12e1c8U, 0x3db6fef93cfd927bU, 0xbd6319083da4e0b2U,
  0x3b9c18f43db2badaU, 0xbb8c32f0bc7fcdaaU, 0x3de601d5bc738735U, 0x3dd8dde23de669e3U,
  0x3d7724cd3e23d450U, 0x3d1b157f3c899f8fU, 0xbd0d3c0d3df04941U, 0x3d7830533ce058d4U,
  0x3cc154613e156bdaU, 0x3e1c07143dd68343U, 0x3e1acf043e38c96eU, 0x3d9b14b73e13d769U,
  0xbc62f73f3da8b839U, 0xbd0ac1673defb458U, 0x3d2e649bbd2e8071U, 0x3e3b6e0a3d32fef3U,
  0x3e009a0cbc71df3bU, 0x3e2650d3bc39780aU, 0xbd0ab9093d1b5d94U, 0x3c92fea63d1c7096U,
  0x3daa44043e0a03fbU, 0xbd0ad2d53e2c1175U, 0xbcb20f7c3def8082U, 0x3dfbafbb3e3727f2U,
  0x3da2e1d43db85171U, 0x3dd5cfb63bd6fb30U, 0x3e14af653e00fcafU, 0x3c49fb913b25894cU,
  0xbc8ecf5c3d381bceU, 0xbd0ac6c5bc6a3e27U, 0x3e08d2793e0ab62fU, 0x3dbdfcd73dcffeaeU,
  0xbcfcbd633d99f509U, 0xbb11242dbce6cafaU, 0x3cfbe58a3c672932U, 0x3e1b0ed1bcae51aaU,
  0x3c61384d3e2c0cbbU, 0x3ddfc4e23dedb12fU, 0x3df446803cbf04b7U, 0x3e1751a33bd95b4bU,
  0x3e119df73e34089fU, 0x3e0bad44bcd71e43U, 0x3c7eba603d59568aU, 0x3a8bf8e43dcb2611U,
  0x3d8901193db6498aU, 0x3c0fb06dbc9d5d6cU, 0x3d34fb8c3e390ec9U, 0x3c676b643dd56772U,
  0xbcad1b2ebc99709eU, 0xbd19be443dda2a57U, 0x3e161788bcf055cfU, 0xbd1fb2d23d10a35eU,
  0x3ab3002a3d910649U, 0xbc8035e5bbd259dfU, 0x3da50bb33cebe622U, 0x3e0b04943e2acc6dU,
  0x3cda89e63dcb0121U, 0x3e19dd1f3d25616dU, 0x3e047f783cbe42a0U, 0x3ca8adb03e098b24U,
  0x3d937cf8bd08b75fU, 0x3e0705883e02b047U, 0x3e1acb4d3da925e9U, 0x3cdacf453d5d1cfeU,
  0x3d12b315bcf7a268U, 0x3deef4ad3d8201abU, 0x3d9cd67d3e0dc073U, 0xbbf83daebcc2dbd9U,
  0x3c2ecb4c3d97aefaU, 0x3e01310b3cded6b7U, 0x3e0f2b9d3e34dfa5U, 0x3daef8073db1a1edU,
  0x3dfdb29abd380a31U, 0x3e1146463d4a7873U, 0x3e06438a3dd4f5e1U, 0xbc0f88ee3e29aee7U,
  0xbc3895ba3d9aa306U, 0x3dd263163de3d9abU, 0x3dd3eac73db5cdd1U, 0x3e0b298b3d1cd9a6U,
  0x3c7d5c9b3dcd8fcfU, 0x3e028cf93ccea350U, 0x3db70e063d71b7d4U, 0x3dca9c8f3d193c25U,
  0x3d4efcb0bcf9d32eU, 0x3e3b8a963d909e5aU, 0x3cb742943e11b2e4U, 0x3cdfa8bdbcc610beU,
  0x3d3acbc7bceda8bdU, 0xbd2f60393e0df1ceU, 0x3be9a67c3dc80b47U, 0x3e406f2b3da7e7f8U,
  0x3e33bb2b3da11f1dU, 0x3e3af2b1bcd2f185U, 0xbcfe210a3d13f9ddU, 0x3e1a377a3e2d4ad4U,
  0x3e277a523e162455U, 0x3c6c2da53da88126U, 0x3dee7b513e3d0525U, 0x3c6879b23d9c55d7U,
  0x3d6a0dbb3df04383U, 0x3b4a1310bcdd901eU, 0x3deaa3c93e331d82U, 0x3e3ab43cbc5aee31U,
  0xbdd876093d8e4d39U, 0xbca80e42bd9d4f7dU, 0x3d871573bddd21e2U, 0x3d27cd6ebe098dd9U,
  0xbccff0d2be0c15c3U, 0xbe134764bc07fc7dU, 0xbce32bf3bd62e6a3U, 0xbe154b9abdf6bf92U,
  0x3d7e51d1bd4741c3U, 0xbd94e9f4be03a959U, 0xbc09aedabdcd9b89U, 0x3d1216d13d8110d8U,
  0xbd6ca458ba63f045U, 0xbe23a7b73c86c7bbU, 0x3b5d5fb03d38c7faU, 0x3b902a0abe054525U,
  0xbdd104d93cddba61U, 0xbe0ecd143d680f81U, 0xbd7f1161bdd7d70cU, 0xbd09243bbdffab18U,
  0xbdfce75c3d5894faU, 0xbca2b865bd9418eaU, 0xbd1f84f3be21d923U, 0x3d895894bdaad71bU,
  0xbde1c0f2bd626f1dU, 0xbd6139b4bdf7ed6bU, 0xbb29cdf6bda024ccU, 0xbdc939cb3ccc7004U,
  0x3c8f6b91be0cbd09U, 0xbdb10cd6bd7b5d02U, 0xbd762c6cbd691d85U, 0xbd151e54bd3dac80U,
  0x3d8d96983d89d504U, 0x3cb92fa23d1c61fdU, 0xbceb3f143b655141U, 0x3c5e289fbd39143dU,
  0x3d90ad1cbdfdbb53U, 0xbdc5065ebcddb555U, 0xbdc826d83bf3ccdcU, 0xbd3a2b9d3ccc31a5U,
  0x3ba31f16be01d96bU, 0x3b4b45f0be0d4931U, 0x3d080bc4bde2fbb6U, 0xbdef1529be1d4ed8U,
  0x3d87121dbdfb8c11U, 0x3d927a733ba7d2c1U, 0xbd92187dbde2df3aU, 0x3d950be8bd478454U,
  0xbd0a6e94bca37484U, 0xbd4ed3f7bc3af338U, 0xbd8bcbd1bbaa46e8U, 0xbd76896ebe07011cU,
  0xbe076e243c7817f6U, 0xbd550c543cddcb06U, 0xbdce01afbda2d7baU, 0xbd0d281dbdcac941U,
  0xbd2b0327bce19a8fU, 0xbd523a7abcfddae3U, 0xbd9430cd3d7273d2U, 0xbd0434583d8c01bcU,
  0xbe09a3c53d17d81bU, 0xbdb76293bdc688b2U, 0xbcc70faabe217575U, 0xbcbcf2ecbd6bfbecU,
  0xbd5aecb3bdc1b17cU, 0x3d7abe54bd9eff01U, 0xbd960362bd1df574U, 0xbbe8d86ebd64adc8U,
  0xbe1bc049bd8b9e45U, 0x3be772553d030e80U, 0xbe17b053be195979U, 0xbd84bddebd1f932aU,
  0xbe0480603d665d96U, 0xbddb3f57bd8b7ff3U, 0xbe091be93d46a01bU, 0x3b96811cbe126a8dU,
  0xbd3219e5bdf92fdaU, 0x39d36babbc66d6edU, 0xbdc3ebb6be01d68cU, 0xbe11070cbce8cf25U,
  0xbe07d575ba35e039U, 0xbd9f73ffbc495656U, 0xbb9dd75c3d9ba430U, 0xbd1e9218be1453a3U,
  0xbe197678bd4be696U, 0xbd7b4c603d943aa3U, 0xbda07767bd68b6dfU, 0x3d2b4cb4be08a02eU,
  0xbb99f86e3c22adb8U, 0xbd7a41afbdd218b8U, 0xbe1669953d230dfbU, 0x3d3388d5bd83e43bU,
  0xbd9840cf3c0c22b8U, 0xbd4e69b53c0096f7U, 0x3d00d9a8bd8e3ee3U, 0xbdedcf1e3be7c6b2U,
  0xbbe44397bcfe038eU, 0xbdedefa4bd9d27cfU, 0xbe1589e2be1977f8U, 0x3d9dc7b3bd3a2125U,
  0xbdbb802d3c31b7d8U, 0xbdcca9e0bd3327beU, 0x3c9895e4bbc322c0U, 0xbcc42c9cbcd68828U,
  0xbda5ab80bca53ed8U, 0xb93d8200bd26c832U, 0x3ca30534bb22a720U, 0x3d6ebff63c1d0798U,
  0x3dd68ab5bda00d77U, 0xbdd07cc63cb0a78cU, 0x3c200c583d14cc22U, 0xbdeefdb5bd970a3cU,
  0x3d59433a3ce5a39cU, 0xbd35fe3cbddfca30U, 0xbaa544803c81c2b4U, 0x3cdc3b64bd2d4eeaU,
  0xbd8987bb3da126edU, 0xbd1b12543d820f05U, 0xbde93dcabcdc55f8U, 0xbc20a4483defdee1U,
  0x3dee9aff3c9e4484U, 0xbdcfe88c3d2ec946U, 0x3dbaa9a13d0a6ef6U, 0xbde5a2df3de7f221U,
  0x3dbb52bb3c96d8dcU, 0xbd8e37043d34c48aU, 0xbd8d984c3c9d7a94U, 0x3d6c4ec23cdb7f04U,
  0xbdb25b67bd1b784eU, 0xbdabf04b3d7e419eU, 0xbd2bb66a3d77e0e2U, 0xbc4d94c83d3df0aaU,
  0xbc647bc0bda80f71U, 0xbc2c72383dde04efU, 0x3c392b783db33d47U, 0xbd43186cbd32fe0eU,
  0x3cbe9f8c3d85122bU, 0xbdd507afbdecd212U, 0xbcaf0368bdda1841U, 0xbdb416a4bbd96e40U,
  0xbd815e4ebd8737b8U, 0xbd5f01f23d2ed9ceU, 0x3c305c88bbe24ae0U, 0xbcb0bd3cbbc45210U,
  0xbc984b0cbdcd552fU, 0xbcde58a0bdc37172U, 0xbacd8b00bde2b2a8U, 0x3ad94040bc650d88U,
  0x3d594852bd27483eU, 0xbd3e01ac3dbcb157U, 0xbd1375e639c88200U, 0xbce9c118bc4493f8U,
  0x3c04d0a8bd334462U, 0xbd043cb63ca3500cU, 0xbdcc60c33d308c2eU, 0xbcf5a13c3da834a7U,
  0xbc427f48bd5e9a10U, 0xbc7d32b8bd781a0aU, 0xbdde7dcebde3dedeU, 0x3dd54a953d2f1bdeU,
  0x3d7b1ee23bb5db70U, 0xbd843caebd9271a0U, 0x3d5f079abdba9974U, 0xbd9d5b05bda627f7U,
  0xbd82b55a3d7a3eb2U, 0x3d4d9b76bd5fa952U, 0xbda57363bd5cc036U, 0xbdb566e2bcccac60U,
  0xbd521c58bc131460U, 0xbbdc3d303ddcc9dbU, 0xbcefa568bd40329cU, 0x3bea1220bcbe472cU,
  0x3ce3cb443d330d5eU, 0xbd166d5cbdda237eU, 0xbdd0c2b43db24b9dU, 0x3def4179bd36cdd4U,
  0x3d56e9523d930089U, 0x3db6a47b3d95f14fU, 0xbc81cea8bd9e0b53U, 0x3d84a2e73d7c82f6U,
  0x3dbd91abbc60cc78U, 0x3d0495debbc32700U, 0x3d7dce92bcfe9d28U, 0xbdd5d306bd3428a8U,
  0x3d80e9133d25e6f6U, 0xbd4f6c023de1e6ddU, 0x3cd537743cf2f45cU, 0xbd0a630ebd985ee6U,
  0xbd50cd103dc03185U, 0xbbe95f30bde684a1U, 0xbba58cf0bcad78d8U, 0x3cf79bd4bdde998bU,
  0xba9010c0bdb214b5U, 0x3d030e3e3dc0c5cfU, 0xbd1ec444bb0660c0U, 0xbcae5d2c39c25e00U,
  0xbde36dd9bc232cf0U, 0xbcfb4c1c3dece049U, 0x3dd0db4f3da58a61U, 0x3d8f798bbdb042c8U,
  0x3d8d119f3c0a9ba8U, 0xbc8068483cfe212cU, 0x3c5005883bb2de60U, 0xbda57df03db93b7bU,
  0x3ddfc4a7bd0446c2U, 0xbdbc6f6a3a98b880U, 0xbd79874a3daa190dU, 0xbdce2e35bda8c012U,
  0xbcc58cdc3dcf7ad7U, 0xbdd595813dd272a9U, 0x3df039b33dd482c7U, 0xbdb9294d3c844554U,
  0xbccbe838bdbe5aa2U, 0xbc1dc0c03de51847U, 0x3d60d182bdeedd85U, 0xbd0b4f6e3db82629U,
  0xbc29ae283cd0b894U, 0x3dd5e491bd091c32U, 0x3dc17dc9bde08679U, 0xbac2b3803c6c7d88U,
  0x3d463636bdcddcc2U, 0x3cf873bc3d0f880aU, 0x3de2127b3d5b00baU, 0xbded6653bce309e0U,
  0xbca898ec3bc81da0U, 0xbd210e9abd096d18U, 0xbdb55b613bf56bd0U, 0x3c05df18bdcbb0adU,
  0x3d6f18ca3dab98c5U, 0xbd498016bc6a23c8U, 0x3db8fb93bddc933cU, 0x3d7c48c6bd60644cU,
  0xbdb47bbabdd0e52dU, 0x3d1229a6bd7826dbU, 0xbdad41f4bda87dd6U, 0x3cba49ec3a0ccf80U,
  0x3d3f3a563a653100U, 0x3d76d6be3d970bf9U, 0xbd0795f4ba0c9100U, 0xbcb36e503d98983bU,
  0xbd9b45afbdeb0d4dU, 0x3c58e578bc1c5660U, 0x3dada161bd0766f6U, 0x3d35fe8ebdc18d7eU,
  0x3d03fada3d868517U, 0xbc1401a03d2b2cfaU, 0xbd7a62f7bd944e28U, 0xbcc5cefcbdcd6764U,
  0xbdb8fe4dbd2c4120U, 0xbda3a3bfbcbff1ccU, 0xbde405a0bd587d68U, 0xbcac11c0bda235e4U,
  0x3de232773d2493e6U, 0x3caa17fc3d53acdeU, 0x3dd3b20dbddab74bU, 0x3d094f46bcbed698U,
  0x3d26deae3b2a7840U, 0xbcc43fc4bc717658U, 0x3c9220d43d8af613U, 0x3dc3ef0d3d6165e2U,
  0x3c804ac4bc14f6a0U, 0xbde789babded3719U, 0xbddc1020bc916b1cU, 0x3c94424cbd221918U,
  0x3da8c1f9bddf664cU, 0xbcf6dcc83b4df1e0U, 0x3d66a06a3cdea3ecU, 0x3ded95213cd53494U,
  0xbdaa62e23d79f832U, 0x3d9cf563bd9d1e44U, 0xbd885ddc3db38441U, 0x3dd954c9bdbd8ea9U,
  0x3dd59f593de98a11U, 0x3dd23c95bcbbe094U, 0x3abed480bdb2e84bU, 0xbd10b1ac3d7c3412U,
  0x3d91f643bd1cb21cU, 0xbd9013533d06fe2aU, 0xbc9500c0bcba4448U, 0x3dae3f2f3d7bc9feU,
  0x3c2a4928bcd1672cU, 0x3ce72f8c3dacfbafU, 0xbc8d9700bd884000U, 0x3bfb14f0bd4d66f0U,
  0xbde58fcfbd9302d8U, 0x3da92ea93d88eb79U, 0x3d25fb52bdebc93eU, 0xbddcf5093d884351U,
  0xbde98168bd225d7aU, 0xbc8e20203de48451U, 0xbd865f6f3d1c8672U, 0x3d7fdd823cc1a25cU,
  0x3de870af3cf3f9ecU, 0xbc9623ccbcac5dc4U, 0xbcc3dfc43d117cdaU, 0xbd0969903d8310ffU,
  0x3d5865f63d7a69aeU, 0xbdecf3a4bdc989c0U, 0xbdaef9be3d4926feU, 0x3d88f85d3dcefe59U,
  0x3c5a5da03d10e501U, 0x3d5c88783d727119U, 0x3e1472063e3a93e9U, 0x3e2843343d26ecd6U,
  0x3cfe32d43d1e1162U, 0xbb91c67dbc9c5e29U, 0x3db690543d68653aU, 0x3d356679bc447509U,
  0x3e4097573de37bbaU, 0x3cafd2c1bd172fc2U, 0x3d2ce1d9bc211d33U, 0x3e1fe36c3e0003f2U,
  0x3e3533743d93335aU, 0xbd155f803de49d43U, 0x3e26256d3c5de441U, 0xbcca21e3bd13f27fU,
  0x3d181606bc6347e3U, 0x3cb745d53c9cdd5dU, 0x3d9b18e5bd4756feU, 0x3d00239fbca96c66U,
  0x3d8cf1403e235265U, 0x3d8912153e0b42a6U, 0xbb839e7a3c8c6512U, 0x3e38b5753e29235bU,
  0x3e392f633e36b713U, 0x3b9ae7313e3b3594U, 0x3d573d683cc35271U, 0x3cd2f86a3db5df00U,
  0x3dc704913e25f670U, 0x3e0cbfb53dcef402U, 0x3df486493d34f0d0U, 0x3e264f583db49ee6U,
  0x3d89d5e43e38ebdcU, 0x3dc7c11a3d9529c0U, 0x3e16900f3e25df52U, 0x3e31cc1f3de40cfeU,
  0x3e1b636bbd424b5dU, 0xbc3c5221bd14385cU, 0x3de251793d26e994U, 0xbc84aaadbc18a81cU,
  0x3e12457e3c771831U, 0x3d5959e9bd007ff4U, 0x3d038d5f3dbde9c1U, 0x3b68e0493bb6ba97U,
  0x3dea15fcbadaef5cU, 0x3e0b9684bca7652cU, 0x3e1a025c3d8055ecU, 0x3d1ed854bc9eb680U,
  0x3e1833f63d3dbeabU, 0x3d3211063e2d69d8U, 0x3dac34b73df2c4d4U, 0x3e2c532fbcb8064aU,
  0xbc3d626cbce39dacU, 0x3d587ed43a2e0859U, 0x3d617147bd103f85U, 0x3dbf56173e18b838U,
  0x3d95f88a3de5be40U, 0x3e15f825bca4b2d2U, 0xbaaad8733e12ff3aU, 0x3e25762a3a889188U,
  0x3e1c74eb3de6ecb0U, 0x3e2bd8673d80f5caU, 0x3dc3f257bd3ef0d8U, 0x3daa3226bc986ae1U,
  0x3e273a523e2515f3U, 0xbc9b08083b24398bU, 0x3d9ce46c3d0e451dU, 0x3e11ba66bd222889U,
  0x3e22a5fc3da286e3U, 0x3dbab17d3dcd036eU, 0x3cebe4ae3e071228U, 0x3da62efa3d1896e6U,
  0xbcd22a2f3e1534dfU, 0x3d1031a53e10ad69U, 0x3ddab5db3de7dc38U, 0x3d583a56bc3f7aeeU,
  0xbc0a2f523acde2b8U, 0xbac522ddbb5b152dU, 0x3d4bca46bd1f62aaU, 0x3d02398a3e2e035eU,
  0x3e1ff68b3e34c775U, 0x3d99e2bd3e02fb56U, 0x3d053d583d49d573U, 0x3ccbe4ad3e3c9aa3U,
  0x3e3088333c8cb77cU, 0x3e1b45eb3e091ddbU, 0x3dfb7658bcd6d72aU, 0x3e2a36683d550149U,
  0x3dafbfddbd1c9c86U, 0xbcc0b9543dda3d5fU, 0x3e374e05bcd9d5f2U, 0x3cde23743dbba490U,
  0x3e36a7da3d19efecU, 0x3df01023bd2dcf5aU, 0x3e0496443ce6eec6U, 0x3d84ef363dfa1abbU,
  0x3d1428aa3c4caac7U, 0x3d54d08c3db5578dU, 0x3c7bc6463db3831aU, 0xbd213d69bca208e7U,
  0x3dc3d7673c47c4caU, 0x3dbd303e3dcddcbcU, 0xbc91a9003cd59172U, 0x3cee1a253d5c76aaU,
  0xbcd7022dbdc385a0U, 0xbd9624fc3dc91411U, 0x3dbfa8943dd2107cU, 0x3c37d6123b93298fU,
  0xbd09a576bd7fe56dU, 0x3c0fca28bd808b4bU, 0x3dda8dd3bc58f37fU, 0xbcdad2263def9deaU,
  0x3ca355c13dbe15a6U, 0x3c82cbfdbd3ef713U, 0xbc2fb84cbc1dc64fU, 0xbd10c7223dcc4594U,
  0xbd99455f3d824b8aU, 0xbc4f4b2bbb94ab83U, 0xbd7419d8bd2d8ca8U, 0xbd44fb943c505a92U,
  0x3bb05d96bde17298U, 0xbd818be83cac9f8dU, 0xbd0ce1e0bc57178fU, 0x3dc9c0d53dead165U,
  0xbd11afa3bdd81574U, 0x3c9953973dd9d681U, 0x3c381a623d9bef82U, 0x3d036796ba76eedeU,
  0xbc2ea122bda0c48cU, 0xbd395b3d3dcec33bU, 0xbdcce94abd0d7cc8U, 0xbd865c163c0a6b4aU,
  0xbda8250bbd039cf8U, 0xbdc00544bddf598dU, 0xbd9535ba3d18438dU, 0xbd8f9b113d7ef2c2U,
  0x3dcaabe2bd546481U, 0xbd0877033d8790f2U, 0xbde7c386bda28309U, 0xbdb57ba93d1ee037U,
  0xbd86be16398a9476U, 0x3d030702bbffd3f7U, 0xbd3e1573bd7c9517U, 0xbd00e853bd9cadf7U,
  0xbd281b05bba7c31bU, 0xbda5c0ea3d9b4873U, 0x3c53bc11bd908f44U, 0xbd9ea48cbc07f858U,
  0x3db58d87bd80acedU, 0xbdd062803bb19714U, 0xbdc18f46bdc10d6aU, 0x3da2a38bbdb5cee6U,
  0xbdd33d363dc863a8U, 0xbdb464d13d2c1ccbU, 0x3d3629c13de23322U, 0x3c7483a0bdc9f38fU,
  0x3dddc0f9bd0503e7U, 0x3d03e6363df1bc66U, 0x3d3205d43cff6979U, 0x3c3ef0cfbd825f1cU,
  0x3d1c21a6bd62e103U, 0x3d985baa3d0448c6U, 0x3b0eb55abdc7bd98U, 0x3dc935523c69eebcU,
  0x3ccc28833d014fbfU, 0xbdce81443d8a4ec3U, 0xbc973850bdb4d9aeU, 0x3cf017b2bc883dd2U,
  0xbd2dd0a03dcd8606U, 0x3ddfc807bdd9767aU, 0x3ddc66013db87680U, 0x3d630b733da5e4a7U,
  0xbca92586bdbabb8cU, 0xbddffbf4bc6a73c4U, 0x3dada7dc3d9c5940U, 0xbc8971d4bcaf2b2dU,
  0xbad3c39dbc9cc702U, 0x3dee4b2cbd9f9385U, 0x3c897067bdb3db20U, 0xbdd62d803d05d9c9U,
  0x3b87f9a43db5d43bU, 0x3ddb8d723d84ec90U, 0xbca78d1b3d237bbcU, 0x3c094aeb3d725a6aU,
  0x3d722ea1bc86d32dU, 0xbd8d66fc3db3b7afU, 0xbc937821bd911ec3U, 0x3aca45c0bd956073U,
  0xbd8b84353d5b2593U, 0x3bd061ccbd6f6f05U, 0xbd522a49bd320e98U, 0x3d44d37fbda5672dU,
  0xbb03dd4ebda546eeU, 0xbd7837e03d7e4369U, 0x3d00735cbc8dee33U, 0x3dcb192f3d1701fdU,
  0x3d2a6e7ebd249d47U, 0x3dad92edbdce256fU, 0xbd736cfd3dcd7a32U, 0x3db6b85bbdbbea63U,
  0x3cdead07bdc2020dU, 0xbe081649be08c207U, 0x3ce1114bbde37972U, 0xbdd469853c9c580dU,
  0xbcd16cafbe0046e6U, 0x3bdecf63bdd947bdU, 0xbdde95f8bce8b560U, 0xbc0f8294bbd98c94U,
  0x3cfeaa30bdf79cb3U, 0xbdcefa2abd63e95aU, 0xbd2b9dcfbcc77dfdU, 0x3d7c461fbdb2f640U,
  0xbdea4476bcdebe2eU, 0x3d45c658bb3c3467U, 0xbdfe8ff8bddfd583U, 0xbc31d4babdd6968dU,
  0xbdd6f6cebd9cfd88U, 0x3d92196cbddb2a08U, 0xbdf9dd04bd4fcbb8U, 0xbe1a67c6bdfb2a3aU,
  0x3d00daccbd664654U, 0x3d7d1b3e3d7312f4U, 0x3d5427803cd0033aU, 0xbdbe0daebd3c9c9eU,
  0x3c5b0354be00981eU, 0x3d3a57903d69e5e9U, 0xbe10d7563d685a57U, 0x3b2926a7be0826deU,
  0xbc6ae99d3c35012cU, 0x3d19a766be03d0b7U, 0x3d4b78febdfd6717U, 0x3d83491fbca1f720U,
  0xbd755bddbe1a22a2U, 0xbdece32d3c52e8eeU, 0xbe12a6603d3015d9U, 0xbc9b977cbd2b717aU,
  0x3dbd3242bc7e0f0fU, 0x3d1015ffbe08eca8U, 0x3c90910dbe166d60U, 0xbaed7b4cbdfdb0a6U,
  0x3aa00b1b3d6cfc7aU, 0xbdf49a2bbdc3e603U, 0xbded9ae6bdf8511aU, 0x3cdb78b7be01cfddU,
  0x3d33eddbbe1a1f4cU, 0xbda1666fbd95f2ffU, 0x3d8dc58f3d991f3eU, 0xbe13ae73bd9d7814U,
  0x3bd7d2da3d17ae25U, 0x3d46c1863d92c376U, 0xbdc7a824bdcf2c1fU, 0xbd5fc9663d302442U,
  0xbc113c84be2d2bcfU, 0xbe10c7dcbd2e3d98U, 0xbd8ed1d73cccafe9U, 0xbdbb5a203c9a6a18U,
  0xbcf8916fbd1cd086U, 0xbd6233d8bd5fdbe5U, 0x3d4093edbdbeadb6U, 0xbd22fb7fbe1a3f0aU,
  0x3d5cbb223c2f4c82U, 0x3d606f89bd14856bU, 0xbd6a8bf3bd78a93aU, 0xbda3872abe1ea476U,
  0xbe05da133d8b3af3U, 0xbd224e60bdc0f246U, 0x3d8c58bb3d808b15U, 0x3d25924bbcda7dc3U,
  0xbde57db33da13362U, 0x3bae368dbd8dd350U, 0x3d591d23be06c298U, 0xbd88e6993b69c5c3U,
  0xbd070fbcbe112fbfU, 0xbdaf75523ca7bff3U, 0x3c84b5fb38b21850U, 0xbdb8b956bc420871U,
  0x3d61e978bdfff414U, 0x3cb81252bc5522b9U, 0xbddad05a3d0f371fU, 0xbd4cdecbbcacea73U,
  0xbd8540d3bd2adcdbU, 0x3d8ff8dbbdd0945aU, 0x3bb92ebd3d22f746U, 0x3c0e1dc73d3e3112U,
  0x3c4d7d4abe083fabU, 0xbd44400dbe03e387U, 0x3d642e2abe0a326fU, 0x3d2df72c3d33347bU,
  0xbce3a2603c236bfdU, 0xbe223f11be1a7b20U, 0xbe1a9d1dbe1d4ab2U, 0x3c951827bd3e9348U,
  0xbdf259a6bd889c04U, 0x3c23c35f3c4df87bU, 0xbd3d83e7bc18f7b6U, 0xbdb59c19bdbcf40dU,
  0xbd70b953bcf6617eU, 0x3d56c7f63d9654cbU, 0xbdd734d7bdae8b9dU, 0x3d179ab9bd1403d3U,
  0xbd8097a2bcd833c0U, 0xbce87aefbd1153a6U, 0xbd48a7c0bd1e71a8U, 0xbcc8d91f3dfb7210U,
  0xbd5798b53d5199aaU, 0xbd58b45ebda44851U, 0x3db648e0bd4e5d08U, 0x3c8796b33de41195U,
  0x3d388daebcada306U, 0x3ddb11f5bda8662bU, 0x3d847d4bbb4de594U, 0x3de596263b308900U,
  0xbdc24e49bd2f342cU, 0xbc36e255bd5e1f67U, 0xbdc8eae13d20af88U, 0x3daef9af3da9a2f1U,
  0x3de90f513dc865fdU, 0x3dc478f2bd080619U, 0x3dba7db93c984a71U, 0xbcf7d7723d61a6e2U,
  0x3da0052a3d8d5611U, 0x3df847e1bd7c8383U, 0x3d5faa7bbd935546U, 0x3deb8ff73d129e6dU,
  0xbd43b717bdb59164U, 0x3c9f1d10bdc32484U, 0xbbbaf0e1bbbbbcd2U, 0xbc1358023d01b9cdU,
  0x3c0b7c783c8a5681U, 0x3c2e03ba3d3c69dcU, 0xbd8cc69c3c075b03U, 0xbdb920d1bd83d90fU,
  0x3dbe9ab3bd488563U, 0x3ddd4ae73d0fb084U, 0xbda3d9cf3d103baeU, 0x3dec4e943ca8a449U,
  0x3d12f3b33daf07a6U, 0xbbaa7ab13de3e0deU, 0x3c69279b3dafb600U, 0x3dddc1e4bd9294aeU,
  0x3d814282bb9ac70fU, 0xbcac74843c2fe062U, 0xbd1000bb3d9d1e99U, 0xbc6cb1cc3dbb602aU,
  0x3dce39ec3b1e4feeU, 0xbc16db2c3d92160aU, 0x3df57e91bad09eafU, 0x3e0520683db9b462U,
  0x3ca197c6bdc76790U, 0xbd5a0ed53b76b2a6U, 0xbd29bf763d1c5f89U, 0x3de87f8a3d78baddU,
  0xb937d954bc916f39U, 0x3e0134f0bb2dcc40U, 0xbc938ade3d23656aU, 0x3db8bbdb3d2fe9d2U,
  0x3bad3efabdb587cfU, 0xbdc951a83c71a08cU, 0x3e0513453ccc2da4U, 0x3d8bfa5e3dc0aa97U,
  0x3d5df1863dc59e9fU, 0xbd8623243dbfaee8U, 0xbc5fcf36bd251c8fU, 0xbdbf0484bd0955c6U,
  0x3d8fa15f3c5e27faU, 0x3da62f743c969387U, 0xbc97eb303d1d9bcaU, 0x3d7c7762bdaf0840U,
  0xbd99583a3dbd4648U, 0x3d11c9e63d930cf5U, 0x3da6b5f2bd0aba58U, 0x3d9b3cddbdca6089U,
  0x3d52c407bdce46beU, 0x3ccf3c07bd0a3175U, 0x3d488a303ddf7ba7U, 0xbd0fbf90bd470809U,
  0xbd780e22bbb4e54dU, 0x3d40256fbbcbc022U, 0x3b8f1f233cd01824U, 0xbc7eb4813dcb78eeU,
  0xbd7655a13d5b197bU, 0x3d6418713db3e5caU, 0x3d6af7e1bdc3fc7cU, 0xbcedf78abcf67859U,
  0x3bccedee3db0fc9aU, 0x3ce8061e3ca31190U, 0x3cc0ae983d4afbbdU, 0xbb5b33fb3d3067baU,
  0x3e00560d3e01c15dU, 0x386aecd4bdca4abcU, 0x3d8c7a2a3e0460c7U, 0xbd023ddf3df055a9U,
  0xbd2678cabd90ff97U, 0x3d9c73cebd901704U, 0x3d69282abbcc9d69U, 0x3daf01eb3b13b141U,
  0xbd699f443d50c395U, 0x3ddb8c83bd62bab4U, 0xbd99aecc3da73b77U, 0x3dd55d5b3d971179U,
  0x3c85a1bf3e3bbdd5U, 0x3daaa8a93d708bffU, 0x3dbc05a23e11e594U, 0x3e35e8a4bc53ae6dU,
  0x3e21851cbc506d78U, 0x3db56b203e3b05d4U, 0x3e2f0f02bc8ec106U, 0x3dfcb3ca3daa0d28U,
  0x3e238d093d704fc7U, 0x3da48b43bb8f4801U, 0x3e2d59813e2ba0f5U, 0x3e075f26bc86eb6cU,
  0x3de8e4223d9d047cU, 0x3e1a756d3e35eb4dU, 0x3e3099183e14912dU, 0x3cc637d43e1df444U,
  0xbb89f6ed3d0d7f5bU, 0xbc9e23563da090d6U, 0x3e0c0fb8bcafdbafU, 0x3d4963bc3e4d5dd7U,
  0x3e14cf913dd8dc56U, 0xbcc4c9c73dd838dcU, 0x3d62abce3da68ee5U, 0x3d1333d73e42732cU,
  0x3d6a4a953e0f5db0U, 0x3e3003773d669f09U, 0x3dcd156d3d8286efU, 0x3cd45c7a3d23ec7eU,
  0x3e352671bc6b93d9U, 0xbb15c6a2bc339a5fU, 0x3cf9e91f3d025289U, 0x3e3820b6bbeb93bfU,
  0x3e4308ad3da22877U, 0x3d54511f3e1d996fU, 0xbce369d63e298f72U, 0x3c04fd793d91c8d0U,
  0x3dbcf7553de98bf1U, 0x3e481d5b3d73bdceU, 0xbd01977c3d65bb14U, 0x3df06e703d051eeaU,
  0x3d5de4e63e3bfff3U, 0x3d1572e93e0e8fd6U, 0x3deefdb33dd7ff8eU, 0xbcab2c5c3df2355bU,
  0x3e3ad7e23e1db161U, 0x3e1c9f973e0ed05cU, 0x3dc24bdd3c98bd14U, 0x3e3bd288bcbf6b30U,
  0x3d175671bd10a259U, 0x3d76df663e46e38aU, 0x3d3d8f7d3cd0f48aU, 0x3d7d2d0a3da108efU,
  0x3e3b73553cb1c76dU, 0xb985dc673cde99fdU, 0x3d7b03423dc06cf3U, 0xbc81f56b3e2a3920U,
  0x3d17d6ae3da280b9U, 0x3d1d29723dd96e4bU, 0x3dcf50be3e2d11fdU, 0x3d9f7cdc3e36d04dU,
  0x3d3db6263d9aa546U, 0xbcbc7beb3be05382U, 0x3b0360fb3d8fa5b2U, 0x3e06cef73c542f33U,
  0x3d32fc483da492f2U, 0x3d45a8f83c8a3ab6U, 0x3c5508983dd349ccU, 0xbd05c9da3e267d40U,
  0x3c9c41eabd0b8224U, 0xbca057c83d90b0a1U, 0xbb907d7c3c06792dU, 0x3e2f42ad3dd373d5U,
  0x3d178b333e267028U, 0x3e416a303d98a2a1U, 0x3e1342bd3e0c2473U, 0x3df701953e103388U,
  0x3e434def3d66a93fU, 0x3e1d1c953df33772U, 0x3ca1f40b3a8a7b3eU, 0x3d13d722bcc80625U,
  0xbd052822bcc2bd02U, 0x3dee1da03e43d40cU, 0xbc349d263cfb8f0bU, 0x3e16ff593e3ce9fdU,
  0x3e271a813c48c520U, 0x3da679d23dd733b3U, 0x3dcd3effbd1767e2U, 0x3db7682b3cce49e8U,
  0x3e4ca6723d8803f3U, 0x3e35fc72bafb351dU, 0x3dcce64e3e15f1deU, 0x3e43a8b63e1ec753U,
  0xbcfe95eb3d0ce5c9U, 0x3dd32e953d198c10U, 0x3e2a15723d214c86U, 0x3d703e993db37e5eU,
  0x3d81b2603cde6fd0U, 0x3dc9f1a73e0cf1aaU, 0x3c0cffde3d92c14cU, 0x3e4278903dbb83ccU,
  0xbd8c675a3c4dcf40U, 0xbb13b5f6be096953U, 0xbd7808adbd71bdb4U, 0xbde1d8c4bddecd39U,
  0x3d8fa1d4396f2967U, 0xbdb6cf9cbb8360feU, 0xbd94eb09bdc7ec77U, 0xbc9f75d8bd82c6f5U,
  0x3da15950bdc02f9dU, 0x3b2564fcbdd4623cU, 0xbd75695ebd69f6a1U, 0x3d13e0d7bd852458U,
  0x3d54cd6abdf4cfa4U, 0xbbc7d05abda54fa2U, 0xbd9a61703ce91a03U, 0x3b03ef09bdbc8311U,
  0xbdacc37abc3f874cU, 0x3b10d4273cdc726bU, 0xbd3e14bcbd1c0ad4U, 0x3da815c03c33ae96U,
  0xbd55ad09bdaeff13U, 0xbd2dde133d21a26bU, 0xbc1709cf3b788e28U, 0xbd5d24e8bdb1aa9bU,
  0xbde73ae0bdda6cb1U, 0x3be84921bd541b0dU, 0xbd91b3373bd30900U, 0xbdc345813d5a4b4eU,
  0xbd1ecb9ebda79dc5U, 0x3d9398763d045812U, 0xbd28d1503d0622f9U, 0x3d08663bbd36caecU,
  0x3ce5031c3dc25fccU, 0xbd9521c7be076bd7U, 0x3d7d6b91bd592641U, 0xbdb6193dbdd6ebe8U,
  0x3db0b0a8bceca8bdU, 0xbcf11e403ccef457U, 0xbda05709bc412288U, 0xbc4e5c09bc8c81f9U,
  0xbe05c632be00eda7U, 0x3bee585abd32a6d2U, 0xbd9c0c4cbdb41c1fU, 0xbd671a63bdeba5faU,
  0x3d6430d5be08fc9aU, 0xbdb86998bce25501U, 0x3d7e6143bd9036e4U, 0xbdd083df3db93d56U,
  0xbd56ab63be0c5e03U, 0xbd825b47bda7d590U, 0x3d96ee1cbdf769c2U, 0x3d9440f63ca12deeU,
  0xbda03dd1bdf430deU, 0xbd8298c4bdbbc280U, 0xbcdf1cc13da2d2a8U, 0xbd82cf76ba70e502U,
  0xbd058e51bda326b2U, 0xbc057e543d020a41U, 0xbdddbaf5bda7f73bU, 0x3cc895803ccbe65cU,
  0xbba9b3ef3d8d5a88U, 0x3dc10b213d166ecbU, 0x3d10d297bb295f32U, 0x3dbb1a7e3dae04cdU,
  0x3d7b0d24bcc32069U, 0xbde3cc07bd1a52ffU, 0xbc74f84ebdd0e32dU, 0x3d485ab9bdadf9bfU,
  0xbc81475c3d8b5571U, 0xbdda72c5bdc666ffU, 0xbde7fdea3d1a1247U, 0xbd42838ebc1c747dU,
  0xbdb17457bcb72fa3U, 0xbc0da186bbbed19dU, 0x3db79cc0bd8a1881U, 0x3d648ff9bcd44af1U,
  0x3dc393cc3d5276f7U, 0x3da0681bbc386700U, 0xbdcd67373d988030U, 0xba7d33b4be0359f8U,
  0xbdb711cd3d018adeU, 0xbdc53e433dc000f8U, 0x3cce430e3d692a57U, 0xbdf2b5e93cea4defU,
  0xbcc3a10bbd4c3cf6U, 0x3d1e095d3cfcfdccU, 0xbcd4ba15bdeebfe0U, 0xbd184c87be0bd3a8U,
  0x3d239ee83b5a441fU, 0x3dbd619abdabaf28U, 0xbdbe655e3b630ac6U, 0x3d5867a1bc96bc98U,
  0x3d8d45c53d63ac9eU, 0xbc77c0593cdb6811U, 0xbd9b873dbd7f3c36U, 0xbe023eb2bcd19986U,
  0xbd0bd4cd3dc15210U, 0x3d9d5faabe067112U, 0x3d1bfbfdbd3b5c14U, 0x3d4fcc7f3d64a9f7U,
  0x3ca04b7c3db018adU, 0xbd637069bdae28caU, 0x3b2d02c0bdce688fU, 0xbc051db8bde50197U,
  0xbcbd5d20bdc8cc12U, 0xbdb69dca3d8b594dU, 0x3cf9990cbdb364caU, 0x3d0b0262bbbd19f0U,
  0xbc8331743ce7dee4U, 0xbd9af718bcd89ebcU, 0x3cad515cbda03e36U, 0xbd5c334abd8db4a4U,
  0xbde88f173c98e27cU, 0xbd7e75e33de4334bU, 0xbdefb3b7bdb79f44U, 0xbd13782a3ce0ac04U,
  0x3db86a3dbcfd2028U, 0x3cf9c33c3c7c49d8U, 0xbdb88fae3da52601U, 0xbdcf01933da9b96dU,
  0xbb33f220bddbecebU, 0x3db2bf0b3defac69U, 0xbc585840bdcdfc14U, 0xbd941b063d919c4dU,
  0xbd3d0818bcba7fbcU, 0x3d0c49be3cbf697cU, 0xbd0280623d6d74aeU, 0xbc8cd460bde1ba08U,
  0x3bec5e303d817187U, 0x368c80003dcb13a1U, 0xbcdc71403dea84abU, 0x3d4ed846bcb83824U,
  0x3d70a00ebd6feb26U, 0xbdef1aa03db5edfdU, 0xbdb9500cbba98540U, 0xbde2209fbdb2dedaU,
  0x3dddb8373d7dff1aU, 0x3c9ed694bd90d50aU, 0x3aef1dc0bd75857cU, 0x3d816053bdc22658U,
  0xbdcf01cbbdbaed42U, 0xbdd9212ebde16654U, 0xbdba2d17bdc3891fU, 0xbcdc231c3c450578U,
  0xbd3f7ff23d80b455U, 0x3d374766bd412fd0U, 0xbd5a65c8bdeb046eU, 0x3deda1973c968814U,
  0xbd0e5d4a3c935e64U, 0xbdee23af3df007ddU, 0xbc5baba03cf51184U, 0x3d0432223c175158U,
  0x3d4212963c60e288U, 0x3dc2e8b33d69612aU, 0xbd085c6cbdad00b4U, 0x3d20b692bbd5d650U,
  0x3b91b6403dc05157U, 0xbd1d82d23c20c878U, 0xbd464fbcbcb6b4d0U, 0xbd9b8c9a39f2ce00U,
  0xbcce5e403c8d430cU, 0xbda18f2a3bdd1e00U, 0x3d5400b6bba3b4d0U, 0x3db7850fbc4e89b0U,
  0x3d80f6df3d028bd6U, 0x3de9547b3d0a8c7aU, 0x3ca5d6743d6cb112U, 0x3cd0804cbd0a03c4U,
  0xbd5b89c2bdc5c637U, 0xbc3ae3c8bc440780U, 0x3da6e067bc2ba6e8U, 0x3c2c25f8bd9e7a5eU,
  0xbddcb9b73d623c5aU, 0xbde6eeee3de8246fU, 0xbd32062ebdaec292U, 0xbdaf8c423c5a1478U,
  0xbdd2341cbd344846U, 0x3cf0cd54bde99ffeU, 0xbd6d23903cf1d434U, 0x3b3f40803d9a1bd1U,
  0xbd9cc5bfbc411d60U, 0xbd368fde3c4eb2e8U, 0xbd4e1f14bdd4ea0cU, 0xbdbc5b833c5298e8U,
  0xbda99bbebd1b7aceU, 0x3d3addf6bbac6210U, 0x3d9da7633d04e22aU, 0xbd8caf4e3c85b324U,
  0x3d009be6bda7a1fcU, 0xb8fd9c003d33323aU, 0xbd7cd6efbdad87e2U, 0x3cae9854bdb73153U,
  0x3d29cd0abdc5008dU, 0xbda6fc0abdcc56d9U, 0x3a437500bdeef06bU, 0xbc4c2808bcd53d3cU,
  0x3d78d56ebc8c3fd0U, 0x3de70c513dd57079U, 0xbdc824933d011dd2U, 0x3da993513d64dc6eU,
  0x3c967e7cbda59ee8U, 0x3dd5767b3dde8f0bU, 0xbd513c483dde754bU, 0xbd9be6abbd6bbdf9U,
  0x3d37ba62bdb6f370U, 0xbd99474d3d93b8e9U, 0x3d4dc9b23da2f589U, 0x3dc0392f3d7349d2U,
  0xbdaf12e73c8e3e6cU, 0xbd376836bd80c6f0U, 0xbcf75f50bdde290eU, 0xbd25e96ebcf0f61cU,
  0x3d8476e1bcb67930U, 0x3ddf67a33ddebe6bU, 0xbd4c4fcebdd7fca8U, 0x3bcf1ae0bdd6c788U,
  0x3d33112e3dcb5b61U, 0x3be41ec0bb715200U, 0x3dbddd9b3d95c44dU, 0xbdc652723d20db82U,
  0xbdd8bbf23dead0f9U, 0xbd904bfb3d03e32aU, 0x3dcd085fbc4a02f8U, 0x3d0efffa3d56cc76U,
  0xbc432ec0bcd18c4cU, 0x3d75fd3a3d2f1c5eU, 0xbda9ca573d94682bU, 0x3d9a53fdbdd819eeU,
  0xbc3bd2503beefab0U, 0x3d596c52bde01656U, 0xbdbbfadc3d7295ceU, 0x3d9245273d41abaeU,
  0x3d84a223bd298864U, 0x3dc656e9bda45ea1U, 0x3cfee7e4bd7302b2U, 0xbb3b97e0bd8b2c6eU,
  0x3ca5bb743c2ef4b8U, 0x3dce03433d9e95dbU, 0xbdaa1504bc005a88U, 0x3debef8bbd344d92U,
  0x3d3ca976bdd580bfU, 0x3dc62dc3bc57cd50U, 0x3ccd0074bbeaab90U, 0x3ded77c93d1bd7eeU,
  0x3db41031bd7a6d9aU, 0xbba12910bdbd368aU, 0xbd749d703d0651c6U, 0xbd72e167bc733ca8U,
  0x3db3bc75bb1450c0U, 0xbdd1e9cabdd16fd8U, 0x3b3cb680bc3f6e08U, 0xbd90d8ea3c5fd318U,
  0xbd87fe20bcf09d50U, 0xbda7416c3deedb0bU, 0xbd844c6d3c384408U, 0x3d5615febd960e85U,
  0xbb61f420bcc6b524U, 0xbdd938dabbe1f610U, 0x3dd31babbd9cebc8U, 0x3d26c3e6bd0b3e76U,
  0x3d11ff323db4b1e5U, 0x3da36783bc5faff8U, 0xbc924decbccd4968U, 0xbda81fda3ded4489U,
  0xbd96a8723dded65bU, 0x3d853d7dbc927090U, 0x3bae53e0bdb57001U, 0x3c9a19e43cbf145cU,
  0x3cbdbe943c5673e8U, 0x3dbbc4a93da2f1c7U, 0xbd8edfda3d77fa7eU, 0xbde2f9c03bfe9270U,
  0xbde3b49e3dd5bf5fU, 0x3de5936b3c151cb8U, 0x3c283f88badc4480U, 0x3c3b9218bc7c8e10U,
  0xbc549b10bdb0fb04U, 0x3d247d0abd3607d0U, 0x3d3e2926bd769648U, 0x3cd9479c3d1739b6U,
  0xbdb96fe5bd69bff1U, 0xbdb856a8bda7e098U, 0x3cc9d52c3c8164e4U, 0xbdc8487a3deaec1fU,
  0xbdd38995bd1d6d7eU, 0x3ddfc0bb3dbf48c1U, 0x3ce125b4bd878920U, 0x3d94c89dbce5fbb8U,
  0x3b0688e03b91c950U, 0x3c7e94b83d3ff55aU, 0xbd32ff24bd0cea80U, 0xbdbfe9383d2397e6U,
  0x3cae94943deea7dbU, 0xbd923c44bd7a9056U, 0xbde21a7fb98fa200U, 0x3b8bb410bc376eb8U,
  0xbd6e94243bfa8070U, 0xbc120ef83dbbc59bU, 0x3d440fae3ca19134U, 0x3d10a4ae3dac8e09U,
  0x3d1323c83d81d254U, 0x3c2d555c3d045c4dU, 0x3e3021c93d835641U, 0x3de2cd8b3e3217e8U,
  0x3de28f65bc809389U, 0x3db6ca163e09032eU, 0x3d9f32adbd446d71U, 0x3dcd6fbd3ddb053bU,
  0xbb851dcc3d9ad5f9U, 0x3e262e893da61ea0U, 0x3d82e3993e10b8cdU, 0x3bc44f843e1c431dU,
  0x3e326ea23c4d0464U, 0xbc35871c3e26af31U, 0x3de9b47a3d86560eU, 0x3cb8b1aa3d4b54fbU,
  0x3e257b673e168d08U, 0x3d989d923d6dda4bU, 0x3db61a873e280a72U, 0x3dc76a213d94caafU,
  0xbb8106543d75f547U, 0x3d9cb5cebc31276eU, 0x3d23bb233cca1ef5U, 0x3df1a4fa3e28ef14U,
  0x3e09fbf93dab3a14U, 0x3dca7ccd3e0fdb59U, 0x3da51ac23c4aab39U, 0x3e20a0ec3dc3020bU,
  0x3e389ecb3d8943bdU, 0x3d4c94af3db03c2aU, 0xbcf6f52d3e017062U, 0x3d12c2063d16a6dbU,
  0x3d9c68cc3d390b23U, 0x3e0b32613e0b7cc8U, 0xbd1cbec33e17cb83U, 0x3e315d423e103525U,
  0x3e0c9d9f3cd2557cU, 0x3cc36fc03ddd9caeU, 0xbd2b738dbd291f8aU, 0x3cdc48393cf15addU,
  0x3d971f14bcebf1d5U, 0x3cf9821d3dcfe3bdU, 0x3c6ea6a83c29560cU, 0x3d8f11e93e0eac41U,
  0x3c7974ca3d1986c7U, 0x3d6c8ce23e335758U, 0xbd233d0b3e29933eU, 0x3dddb3603d9ed5fdU,
  0x3e3e52093dad4b20U, 0x3dc3d31a3c5637d5U, 0xbce5ab7d3d1b41c2U, 0x3cbc29733dcda092U,
  0x3e076e0e3df84ba4U, 0x3ba45e8d3c183adaU, 0x3dbeaf853e1ba341U, 0xbd2e49d83e282bb9U,
  0x3dedce163e1ed8dfU, 0x3d6ef27b3e2cc15eU, 0x3e17cb52bcd20857U, 0x3e2e4cf23d4d254cU,
  0xbcf4cfaf3bb530c0U, 0x3e326d5c3dfc6d7aU, 0x3e16da593c7e0bc7U, 0x3dce7ea33d8adcd3U,
  0x3e316201bd631f51U, 0x3d89db943dfd61d2U, 0x3dcee688bc2d48baU, 0x3e2f23c33d0d7a18U,
  0x3e3365273e06eb5eU, 0x3b98c1993e03dfc5U, 0xbcd610d83c8dcc50U, 0x3d97e7ec3df1b8d4U,
  0x3e281eb0bd2e43b8U, 0x3e1855c5bd2c1861U, 0x3d1e764d3da82442U, 0xbd3d04143dcf24bbU,
  0x3c283c7bbd58abd8U, 0x3dacf1773da04315U, 0x3e3337d43d06897dU, 0x3d44dac43b8a2824U,
  0x3e3006203da040feU, 0x3dd224833cb46153U, 0x3e23f4363d250e34U, 0x3d40b6043d9a3cdaU,
  0x3d8747a83dc6f093U, 0xbb1c3be43dc7da1dU, 0x3df732e63e03673fU, 0xbc6943c03dde0346U,
  0x3df264d63dc1e0dfU, 0x3cd6b9e63c47d10aU, 0xbd02b404bce9ca67U, 0x3dad98003ce700b8U,
  0x3d337b543db784edU, 0x3dddd9d13d9d3880U, 0x3c4e0c5d3dc7c1bcU, 0x3e03b616bcebcbcaU,
  0xbc13fded3d184d92U, 0x3de1afbf3aace3eeU, 0x3d98b0113e16a2a9U, 0x3d94fc493dd70d7dU,
  0xbdeda69f3d5b08afU, 0xbe013739be293a2aU, 0x3d43d2f53b2bd8f6U, 0xbdb0805bbe0effe0U,
  0xbdd3d9a6bdf83253U, 0xbdc7c357bbed2a1fU, 0xbd013a613d2ac6b4U, 0xbdc2e112be20818cU,
  0xbe02926ebdeda441U, 0x3d4837b63d39ec46U, 0xba9a27a23c51d7fcU, 0x3d853114bcbbc091U,
  0xbd8d18173d10550bU, 0x3c9405e73c20b607U, 0xbe2b639dbe1125a1U, 0xbdf290cdbdbaf93fU,
  0x3d790212be08e290U, 0x3d762cd8bc88b31fU, 0xbe1da5013d178eaeU, 0xbdff2212be26cd2fU,
  0x3d5586eabd6a8994U, 0xbbdc8044be10ab50U, 0xbdc602c8bdc241f1U, 0xbdd853363bcb5620U,
  0xbd9878d33d2ebcedU, 0xbd75d63fbd4b1c45U, 0xbcaee04cbdd8d8b1U, 0xbdff53023d1c20d6U,
  0x3c848c4d3d63f5ddU, 0x3d4d06c4be165de5U, 0xbb099ee1be1a8845U, 0xbe06c6bc3d6588fbU,
  0xbd83d2b8bd943ddaU, 0xbb4799cbbc558ed5U, 0xbe1c2619bdf1fc73U, 0xbdbfafc53d66e3f7U,
  0xbcf07ca7bb901ae0U, 0x3cbdb15d3d4c486bU, 0xbd4034b73c4405b2U, 0xbe1a6854be20588dU,
  0xbcc22c233cc426fbU, 0xbd305ba2be171d93U, 0xbcc8afd5bd745292U, 0xbe01911ebbaeff51U,
  0x3d35baf8bb9427ebU, 0x3d5e7eeb3d6b011cU, 0xbde21911bca43b77U, 0xbd1151973b299fb8U,
  0xbdea9fc8bdccc383U, 0x3d7843a33c3464e1U, 0xbcce81aabda09270U, 0x3d6b7ef8be0758abU,
  0xbd21821dbd3079cbU, 0x3beb54d83c44d54bU, 0xbe0505e8bdc8a85aU, 0xbcc389d1be109ba5U,
  0x3d170071bd3ce099U, 0xbb69a7e3bd6d27fbU, 0xbdd02d86bba722adU, 0x3bcc5fc7be04c401U,
  0xbbe215ffbdefaa62U, 0xbe1641bfbcb50053U, 0xbd6067a7bd735273U, 0x3b991f3fbcfc3944U,
  0xbdedc8d03d1c8478U, 0xbd8147c8bd022966U, 0x3d75fc29bd9a5370U, 0xbe028f8cbda6b7e7U,
  0x3d59fc8bbdd3fd5aU, 0xbcabef0c3d1da477U, 0xbdc87102bbe21adaU, 0xbde864f7be0229caU,
  0xbcb216a0bde8a325U, 0xbe01406b3d822d94U, 0xbdfc9682bd86c95bU, 0xbe1faddebdd0adfcU,
  0xbe09e3893ba9b0dbU, 0xbd624307be00be5eU, 0xbdd8c0773c4ed469U, 0xbca35af0bda87fb7U,
  0xbd715647bdbef837U, 0x3a972387be08400fU, 0xbe0161fe3d62ed67U, 0x3d7c98e3be27b270U,
  0xbe2714d2bcc52010U, 0xbde1db76bddb3ca8U, 0x3d01d0f13d4847f5U, 0xbde5c7a7bd553860U,
  0x3cec694ebe0a0fb6U, 0x3d1e8923bd6c9c32U, 0x3d66382bbdc081eeU, 0xbcb89c0439a4fb21U,
  0xbbd6729cbc7c9f38U, 0x3d07a84cbe26d925U, 0x3ac7d35d3d7a2603U, 0xbd8f468bbd5901f8U,
  0xbe06cbba3d3c407eU, 0xbc21ccfb3cf77e6fU, 0x3d6d55b3bdf0cd96U, 0xbe271f843c98eddfU,
  0xbdddd9d8bca7366cU, 0xbda535623b542a40U, 0x3da936b7bc9cc214U, 0xbcf1cb883d1e420aU,
  0xbdead254bdd169d1U, 0xbc457a603bbb5b10U, 0xbdd252e93d9004f9U, 0x3cabeadcbd98ea68U,
  0xbcedc9b4bdceab4aU, 0x3dd3881b3db5e0e3U, 0x3de332153d667956U, 0x3cb1128cbd96ec14U,
  0xbdbe7ab43d6fcb12U, 0xbcc934143cc85f1cU, 0x3d602d523d9bfb35U, 0xbab0d140bcbc2368U,
  0xb99926003d35cffaU, 0xbdc4b5a8bdb02762U, 0xbddf60afbd0bf750U, 0x3dbf78213d897893U,
  0x3d15435e3ce0d2f4U, 0xbd069ad039bac400U, 0x3ddc433fbd7d9bf4U, 0x3d2147babc4f9260U,
  0x3be52030bddf8e4bU, 0xbda74015bb42d940U, 0xbd8851663d59abe6U, 0xbcd3d3ac3b6a1660U,
  0x3db2b2c73d8a24edU, 0x3cb1cc3c3de0366bU, 0xbd52a324bd7be221U, 0x3deaafa73d88ac47U,
  0xbdc4bb583c3e7928U, 0x3d48ec92bd4ad820U, 0x3d28133ebd95cb89U, 0x3d685a16bdd19b27U,
  0x3dbb345f3c6f8138U, 0x3da3a1d5bd493064U, 0xbd969868bb8380e0U, 0xbd957c973dd9fb59U,
  0xbd897efbb975ee00U, 0x3daf96f5bc740a30U, 0xbd6bf1f23dc7e53fU, 0xbbcc55303dd5f6c3U,
  0x3ca13b94bc823e54U, 0x3d2a77fa3d91d251U, 0xbdbc07923db77365U, 0xbc77fd78bd83078aU,
  0x3ddc31993dc9e535U, 0x3d83f05bbdaa5326U, 0x3de6c1e9bd268a2eU, 0xbcf9c350bbf40bf0U,
  0x3dcf21a1bc9806dcU, 0x3d82bd5b3d81c5d3U, 0x3de1a3253d991b93U, 0x3d89a32dbce4c0f0U,
  0xbbaf3b103b4f7de0U, 0xbd8cf82b3c69d738U, 0xbd31d9aabcaf7950U, 0xbd7c9779bb91e250U,
  0xbd8f63c1bdc62d0eU, 0xbdccd7ecbdd5fb01U, 0xbcde1ff03c3e8498U, 0x3d1c593a3d677e1eU,
  0xbdd538a33db64dfdU, 0xbd3a2b8e3cd38a5cU, 0xbd8edbfebdd494a6U, 0xbddd1919bd52f8feU,
  0xbd0a7a82ba773700U, 0xbdad34aebb8f0b30U, 0x3da2034dbcdd4708U, 0xbccf3818bd390d88U,
  0x3dced675bd54a3f0U, 0xbdaf8d523d8fb74bU, 0xbd9082533cae11c4U, 0xbd9e8d54bd7cb28cU,
  0xbc06c238bd904547U, 0x3dd58d85bdf0ad40U, 0x3d18f1b6bd5e25ccU, 0xbdca58763dabc491U,
  0xbdb92e313b0b57a0U, 0x3da11db73d738d26U, 0x3dca000fbdab6f2cU, 0x3ddd5683bdb70da5U,
  0x3c1d8e88bced30acU, 0xbd51c26c3b8e8ef0U, 0xbd931218bd06a856U, 0x3db79559bddbbac2U,
  0xbd212d5c3d974f7dU, 0x3d82382fbd9df196U, 0xbd2db6f2bd8b7010U, 0xbd9cec1bbdbcf8e0U,
  0xbd1c66283bef2d50U, 0xbde0df6b3d958155U, 0xbdbd11883c468c38U, 0xbdb8c285bda12172U,
  0x3c6c42b83d7620ceU, 0xbde16441bd6972edU, 0xbdb97b10bcc446f4U, 0xbd8e53dc3d8caf25U,
  0xbdeaabed3c9a2684U, 0x3da82a8bbde033eeU, 0xbd8b09a63d8c5aa9U, 0x3cea38e43d714f1eU,
  0xbda87d703da9b883U, 0xbd77c99b3d975d8fU, 0xbdba93fd3dc9ed6dU, 0x3dde4d313cf110ecU,
  0xbde4454f3c5acc48U, 0x3cd451c4bdd7f90cU, 0x3dc688ff3d9d7661U, 0x3dbfe11f3c1cb2f8U,
  0xbd7ec5cbbde4795bU, 0x3c7415483c94837cU, 0x3da202b7bd1f6f78U, 0x3caaf89c3d9ff101U,
  0x3d356ae63debb585U, 0x3c0252783da7ffbdU, 0xbdc153553d71a73eU, 0xbdac5c333cc8d3f4U,
  0x3ce32494bddd0016U, 0xbc1923683cddcf54U, 0xbd0d7f2abb0bf9e0U, 0x3d8a57853d1b6d22U,
  0x3c8c8d3cbd5803f0U, 0x3ddfdd5f3d0d6956U, 0xbdba9b35bc3eec68U, 0x3de85667bb4176c0U,
  0xbd87e8703d856575U, 0x3d5b0da23d5002c6U, 0x3dee5d453bb75100U, 0x3db694bfbdab85feU,
  0x3cfa4d9cbd1c267cU, 0xbd24ffbc3cc55a34U, 0x3dc8bd033d858391U, 0x3d5ed7b2bd277e28U,
  0xbd1b954a3dca7ccfU, 0x3d2bd2aabdbc5f23U, 0xbd38e2babdd4b30eU, 0x39a673003cebcf4cU,
  0x3dade58b3dba1357U, 0x3d2e695a3c20f6a8U, 0x3d6b6086bb2d4c60U, 0xbb9ef2703af5a840U,
  0x3da4e5c33a789f00U, 0xbda27d71bdcfa27cU, 0xbdcfc9d53c9438c4U, 0x3ddae0cf3da194c7U,
  0xbdc322443de79a2fU, 0x3cb655f43db75a57U, 0x3c906ce43dac18efU, 0xbd82f9ea3d81a3bbU,
  0xbd21d9e4bdc5cba3U, 0xbca4af78bda1800cU, 0x3dadb3c1bd76aa58U, 0xbde78fbd3d95a885U,
  0xbdb4201d3dbf0ea7U, 0x3bd731103d2cee12U, 0x3d2f50cebde8e2eeU, 0x3c371a78bd9367d8U,
  0xbddf69ba3ce2c8b4U, 0x3c76da08bd7e56bfU, 0xb8dddc00bd847420U, 0xbc8c0120bdbd7e0cU,
  0x3d1bbeaabd89d580U, 0xbd4475343daad711U, 0x3afff900bdc6495bU, 0xbdd7f2fabde85695U,
  0xbbb9af003cd19674U, 0xbdc493c2bd7d8517U, 0x3d0fed4e3d89cb7bU, 0x3d2ce376bd4d0a8aU,
  0x3d7074363d8444f1U, 0xbd5b54503d8f3fe3U, 0x3dcaeb213c7c4bb8U, 0xbdea6a393dd5d7a1U,
  0xbca71540bc53fb40U, 0xbd270154bd92aab5U, 0xbda9f2e63cea0674U, 0x3db9c59dbd7c4153U,
  0xbdc0fac83bb1f080U, 0xbdbb1ac0bdb0b940U, 0xbdc1880a3d2df7e2U, 0xb8d770003d12e11eU,
  0xbd6aa75fbd866663U, 0xbda54b4a3d9e8fefU, 0x3b1b9fc0baac9f40U, 0xbdf0bf31bac98a40U,
  0xbd318faebd272d48U, 0x3cdf43ccbc14bee0U, 0x3de2d25b3d8e2e65U, 0xbd12ad8c3c0adda8U,
  0x3d53f35ebc20c070U, 0x3d53937ebde0d3aeU, 0xbdedf6c1bd991d36U, 0x3d839a2d3da8ba1fU,
  0xbd65c911bd5281b2U, 0xbd9b2dacbc36f8c0U, 0xbbe5b3003dbf68b1U, 0xbdbafbbebdc4e8e8U,
  0x3d66e9603d586a2aU, 0xbd7fb545bd176babU, 0x3de37c22bba1938fU, 0xbdde278c3c5601aaU,
  0x3d011a043d9a29b5U, 0xbddc142bbd34b279U, 0xbd447190bd129a3bU, 0xbc984e11bdb1a51aU,
  0x3d03e2fdbd1b5278U, 0x3d57601c3cbf6da7U, 0x3caeaa413d93a335U, 0x3dc28a8dbcd98130U,
  0x3d227633bd1aba08U, 0x3dba74883d345eb2U, 0xbdb60b513dd6caacU, 0xbcf2ac4f3d231a01U,
  0x3dbe4e9cbd9c30dfU, 0xbca60bda3c7855b0U, 0x3c6e0cddbdb8407dU, 0xbca6e8333d4b56daU,
  0x3dae2ec0bdf44d5dU, 0xbd88fdb13de0feedU, 0xbd7b3b833d12665cU, 0xbce8fe293d230810U,
  0x3cd9d84a3d948955U, 0x3b3c52d53dd70516U, 0xbdde42cf3d8d622aU, 0x3d9b4f293dcde4d3U,
  0x3cb879c1bdb1084aU, 0x3d87f1e3bc36f831U, 0xbd5a13adbc14a562U, 0xbc74206c3d94567dU,
  0x3cce0461bdd9f5abU, 0x3a0e938d3d059cd1U, 0xbdc1de27bad9979aU, 0x3dbf5b8ebca05fb1U,
  0xbd824b953d240af7U, 0x3d9b14c7bddb8871U, 0x3cb114243dbe13caU, 0xbcd7f19abce7e66cU,
  0xbd92fcc63daacdc4U, 0x3daf7af9bcd81764U, 0x3dcf1856bdc04661U, 0xbd6088953d6bfbe4U,
  0x3c7bb50d3dc2b7b1U, 0xbd74fdc2bdc3bcf6U, 0xbd4cbe4ebdba7a14U, 0x3cb723243d85d137U,
  0x3d80d0533dcf7968U, 0xbdb27ff13ddd3c62U, 0xbdb2e71fbdbfeabfU, 0xbcc578d13da42f60U,
  0xbdc32ce43d486159U, 0xbda11be9bd18b6b1U, 0x3d2910563c82e99eU, 0xbde7f6973d899120U,
  0x3dd754acbdd1c5eaU, 0x3cc56cb1bdc1646dU, 0xbde2492fbd86a436U, 0x3da161ac3c8aec90U,
  0xbcf1ac23bd12355aU, 0xbd91a593bd8282efU, 0xbc296c5dbd741b32U, 0x3c642bc6bdf2a566U,
  0xbd51277b3ce9c77aU, 0x3cd7099abdbb3260U, 0xbbe264993d83f043U, 0xbdc9bf81bdd51d18U,
  0xbdfafd20bd7f0cddU, 0x3dc508ea3da5244eU, 0x3d1f06803d126d31U, 0x3d8944c8bdc1465dU,
  0x3d47cf613b64bf16U, 0xbdfb613bbd58662eU, 0xbda71cfcbe009ba4U, 0xbdb7a0e4bd0a6088U,
  0x3d68ffa6bd17b79cU, 0xbb6130b8bda88ca5U, 0xbc077c933b46c743U, 0xbd324c18bd8dd11bU,
  0xbdc7fcdf3d11f258U, 0x3da787c63d3dd597U, 0x3d874fedbcc4fbbdU, 0x3ca7a775bdb71fd0U,
  0x3da6f8dd3d41e2bdU, 0xbd4e948dbdfaeeb3U, 0x3dccf8e33c3e31a4U, 0x3ba65bb43dc4bf24U,
  0x3c041eddbd0d0569U, 0xbdeb60e5bd96f4f7U, 0xbd2ca8313ce41c45U, 0x3d4bce78bd8f383cU,
  0x3dc5874bbd1c4292U, 0xbda56ffabda0b2f0U, 0xbcc36d2bbca76ef4U, 0xbdf894803ddb3f99U,
  0x3d07fee53d80d7a0U, 0x3d1ca0563dab343dU, 0xbd68aa323cd61b1bU, 0x3d9abb6b3c9f0e02U,
  0x3db26d8e3d3c0749U, 0xbdb0eddc3de131afU, 0xbdee7bae3d66a177U, 0x3db025d4bdca2da9U,
  0xbc9421f3bd6bf671U, 0xbdc040bebd14d007U, 0xbde49e3abdee68e9U, 0x3dda6f403d9f662bU,
  0xbd8ea0a6bd7dd37eU, 0x3da5e9cebdeef1abU, 0xbceed2fcbd70d1cfU, 0xbdcf7ee43d5c4207U,
  0xbd77ff47bd41a00cU, 0x3bb0eb4a3b4a3d82U, 0xbce211283da758beU, 0xbd4e416c3d53bb8cU,
  0xbd97125cbdbb6293U, 0x3aa351b8bdf9f42eU, 0x3d16cd153dca50e3U, 0x3ddea328bc6af206U,
  0xbda44adbbcb86046U, 0xbda6bbe03d8208f0U, 0xbda929963ddfeb22U, 0x3dc18ad4bdb2f662U,
  0xbc223474bdfa095bU, 0xbde597153d736d70U, 0x3d87fde33c02602cU, 0xbd5fea20bdeac83fU,
  0xbd1050243db46ca6U, 0x3b6d62783c316088U, 0x3d8acdf8b7bfd352U, 0xbdd72ffdbda698f2U,
  0xbd6276463d24a841U, 0xbd1cb529bd84676aU, 0xbb221b42bd934096U, 0xbddc7a2dbcc98dc6U,
  0xbdd237cc3d02ad6cU, 0x3bbade393da655abU, 0xbdf1b8163da77a82U, 0x3dcc1b47bb2b94aeU,
  0xbddcf801bcd20839U, 0x3cb3ef47bd3690bcU, 0x3dbdad493da5c051U, 0xbdb527763dad8c52U,
  0xbdef4e6cbddb24b8U, 0x3da072023da99b60U, 0x3ca973ec3da26399U, 0xbdff6ab0bdb3aebeU,
  0x3db282803dce1398U, 0xbbd7d6b1bd820e7cU, 0xbdf10a70bcfb88ffU, 0xbda5ae33bdd6c743U,
  0xbd28153abd76ab1eU, 0x3c66c1cc3d96f4a5U, 0xbd8839803c420ce3U, 0xbd88ae33bd4ae8abU,
  0xbdd6d10b3dd9ad4aU, 0x3d8a7a98bd4630f2U, 0xbb05143cbc021383U, 0x3d02b589bda96cdcU,
  0xbda40ec6bbf61648U, 0xbae19ab63d58a0e5U, 0x3dae1db93dc96179U, 0x390733e13dce9fe9U,
  0xbdb630783d6b9bbdU, 0x3dbc68b3bca852b8U, 0x3bcd44993d385780U, 0x3c1f3872bdba26fbU,
  0xbddc620b3c4e79cdU, 0x3d51c986bdf047caU, 0x3dae5eae3cfcf131U, 0x3db327a3bd4acf72U,
  0x3d02c8623db6b260U, 0x3bbf81873b6475e0U, 0x3d83f3293daade5fU, 0x3d9b1937bd3cd754U,
  0xbde6210e3d7026c4U, 0xbcfafb1b3d6cb23eU, 0xbda3b585bcde3737U, 0x3dea21dbbdce0561U,
  0xbd3721e2bd1facc9U, 0xbdebeb683c085ddcU, 0xbd8116d0bdaf72c8U, 0xbdb220283ddc5627U,
  0x3cfeeb8dbcc956ddU, 0x3cc7377ebb7e3d64U, 0xbd290f5ebdebcf1bU, 0x3d9204943da43ca2U,
  0x3cd4c6afbd09e834U, 0xbbc53b4a3dd6d466U, 0xbd912a2e3d9992ddU, 0xbba0e8aebd8ffef6U,
  0x3aad147dbb14a204U, 0xbcbc43f3bcb2f39dU, 0xbd972b64bd687ed4U, 0xbdb774ddbda7af2eU,
  0xbdbfef3b3d1b25b6U, 0x3db4c3143a43935dU, 0xbdda8866bcfed813U, 0xbd53c449bd3cf1c0U,
  0x3df13bd33db9c200U, 0xbda0a5bf3cdc18d6U, 0x3c9007473d820383U, 0xbcbbd19c3c59a8c4U,
  0xbd7176a23df9feadU, 0x3c7551813d884ee4U, 0x3e301d7d3e2309b7U, 0xbc9eff003d38e35bU,
  0x3d00d32d3db6fbaaU, 0x3d684beb3e031a5dU, 0x3d187e46bcdc2391U, 0x3c1c2498bd8cab5dU,
  0xbbfe40f4bd377df9U, 0x3dd311573e1d3df5U, 0x3df54ff33e015acbU, 0x3e0ca3f7bd8b9105U,
  0xbd672f973d495ac3U, 0x3cbd4d1abd64d774U, 0xbd14e28e3cbbcce4U, 0x3c61f13a3d962babU,
  0x3de32785bd0c93a8U, 0x3dd4e0a23e0dbdb2U, 0xbd981ef33dbd7565U, 0x3d806dc23d5ba031U,
  0x3ddc45523e0d763cU, 0x3d8835c63cffaa50U, 0x3dfc4cb13ddd4fb7U, 0x3e09cbeb3dfe772fU,
  0x3e183b0fbd303b42U, 0x3c767a803da4122aU, 0xbcb668f73a08b208U, 0xbd8eed6bbd2b9f50U,
  0x3da80f263cb8c0fcU, 0xbd8ca9903d8ff0c1U, 0xbc3bc3153db42e65U, 0x3d24c7babd82fdb6U,
  0xbcd987da3dc7956eU, 0x3dd58ae93cc99120U, 0x3da3e6633d2329acU, 0xbc3c768abd082999U,
  0x3e167dd63e080c05U, 0xbd4a08533d815aa0U, 0xbc9770963cef7570U, 0xbd4c12543ce2b08aU,
  0x3da623173d2149dfU, 0x3e0e13353cdf77ecU, 0x3e021e8c3d225d57U, 0xbc76e22d3d08f6a9U,
  0xbc5692863dafff5fU, 0x3d9d5cd33d10a809U, 0xbd94e5e43e1a3d23U, 0x3d13f4fa3d6e3367U,
  0x3d97be8f3caf5f35U, 0x3d0a45553d44ec83U, 0x3c9832c73d2a73c5U, 0x3dfab6723e1df19fU,
  0x3ceced593da72763U, 0x3d936f7c3d9dccc4U, 0x3e1741803d16f4d2U, 0x3d32a7c83d112468U,
  0x3c7fc85cbc810e24U, 0x3e0c4134bd8af50eU, 0x3d6ea7323de8caa0U, 0x3d64d2a23d205cddU,
  0x3cad364b3e03eab0U, 0xbc9403f2bb87879cU, 0x3daf44563de06769U, 0x3d7af06fbd249993U,
  0xbcc71707bcac0859U, 0x3dde9bfb3e0b9190U, 0x3d918d4ebd0a4413U, 0x3e024b59bc11933cU,
  0x3e0d9436bd383d05U, 0xbba183dbbd07dd30U, 0x3e07ca5e3d9a934eU, 0xbc8c9f953b2207f4U,
  0x3d483698bd1de924U, 0x3c705db73d8bf6f8U, 0x3e06cc0abd5e8195U, 0xbd792242bce2955eU,
  0x3dde28c03df2abceU, 0xbd055d973d10e5f3U, 0x3dad45d73c520122U, 0x3c2573813dadf30aU,
  0x3cd84ee23e165b41U, 0xbcb5753cbc869fa6U, 0xbd6d13c13d091035U, 0xbd2aa25d3d48b2aaU,
  0x3d057db93db3abf2U, 0x3e14f045bd99f303U, 0xbd087794bc85f1f1U, 0xbc3413403c42c36bU,
  0xbd35ab1fbd807873U, 0x3e0fd3ad3cc813fdU, 0x3e1b167cbd932f37U, 0x3da7dd593c1d7c4fU,
  0x3d83a8ecbc806d3fU, 0xbd39e8a83db140e2U, 0x3df615843de11beeU, 0xbacc8a603d8a91f2U,
  0x3ded15f33e0284e8U, 0xbda02d27bd59f47bU, 0xbca8aa953e1a7c61U, 0x3e03e5873de15877U,
  0xbd601fb1bda942edU, 0x3ce67c313e160fefU, 0x3cdcce773e144e10U, 0x3e08324bbc5aaf6fU,
  0x3e1b12c5bd9cec81U, 0x3d0ace233da9eac1U, 0x3bab03813b3ac8e4U, 0x3b01b5743b1fef8aU,
  0x3d6323143dd03bd2U, 0xbd718881bda2dda7U, 0x3e1280e43e03123cU, 0x3d93e4eabd644866U,
  0x3df53ea83d3139cfU, 0x3d24dab8bc9bad2aU, 0xbbbc826e3dff6cb0U, 0x3dc0b0fe3b4bee0eU,
  0x3dac2136bc8d72b2U, 0x3d0c0730bd3bae75U, 0x3e1674003dbeff1aU, 0xb9072b6ebd6800cbU,
  0xbc94db8fba9d5471U, 0xbd3401b83d84b1a8U, 0xbce3e6e03de39de4U, 0x3df5dc80bbd5398dU,
  0xbda0d568bca712ebU, 0x3d52044fba921a05U, 0xbd617bb0bd1a9ad9U, 0x3ded4d803c7c5a16U,
  0x3e109f9b3cfe88adU, 0x3c8dbdb63d53ad78U, 0x3db52db03c9569f8U, 0xbd8a481b3e0b19f4U,
  0xbcd171cb3d4a704fU, 0x3d2a8152bd86008eU, 0x3ddb03073dce16f2U, 0x3a2b1680bd9e3edeU,
  0x397c17a13e027814U, 0x3d20442dbd9a8c3dU, 0xbd801e3f3ba680aaU, 0x3e0645a0bd972ce0U,
  0x3d1da4573e18ed3fU, 0x3a876a8b3df6a5f1U, 0x3da78e473dbc201bU, 0x3dc6369b3e1a736eU,
  0xbb3766abbb7dbedcU, 0x3bc06d463e0ce891U, 0xbd3ed687bd700e63U, 0x3e07dbf63de9f864U,
  0xbca3ee243d9103d2U, 0x3bd470a63dc2d2b6U, 0x3ddfb9b03c045984U, 0x3df4cda5bcff8dffU,
  0x3da72c793d8a7782U, 0x3d1681a53e1b4eaaU, 0x3dc6937abda8f3dcU, 0x3d4af3e8bd234039U,
  0x3d08a224bd60d36aU, 0xbd57d720bd45aa9eU, 0x3dca0af23d5307c7U, 0xbc9c0bfd3d99b195U,
  0x3d86da6b3c16aeb9U, 0x3d894b443dd5fd4eU, 0x3d8c1860bd30039fU, 0x3d5417f0bd9aec35U,
  0x3cc0eedf3e187c68U, 0x3dcaaccfbca6bb41U, 0xbd2e07f53db797b4U, 0x3e0d90d0bb94143cU,
  0xbcdf74043d8933f6U, 0x3e04f3123dce1fbbU, 0x3e0d19b3bd864799U, 0x3dfb0fe5bda90b38U,
  0x3e0ea1c4bd95deffU, 0x3cd4af35bd1584c9U, 0x3c9f41383d4cd86dU, 0xbd9de6e13d4c803eU,
  0x3dd96b533e10ed24U, 0xbce851d53e071f9dU, 0x3d263723bc839357U, 0xbb5091edbaf76f1fU,
  0x3bcff8d23da02ab3U, 0x3dd111903d12d3f4U, 0x3d8819153e090268U, 0x3c8ade7d3db3f543U,
  0x3e072f05bd8cf1ecU, 0x3dbcee8d3e03d1c4U, 0x3e0086cf3df7d84dU, 0x3e0c85ac3d81ed50U,
  0xbd9fa077bd9523beU, 0xbda9a1283c59a597U, 0xbd98296c3b937a6eU, 0x3d8ec91b3c337e4dU,
  0xbcd5e5ae3e19e178U, 0x3de76f3fbced7b10U, 0x3e0adfe63d9234f1U, 0xbd2d513d3db3ad6dU,
  0x3c443f4abcc654c3U, 0x3d0c22163d8f08aeU, 0xbd4ca4043c9783fdU, 0xbde899663cc017e6U,
  0x3d5992053ce13427U, 0x3d8dee143c9d77d1U, 0xbd14641abdb91ad9U, 0xbc60506d3dd6aa38U,
  0x3dcbdffd3deb765bU, 0x3de41d0a3ddf5e86U, 0xbdc575f23b6c21c5U, 0x3d7c49903c68096aU,
  0xbdf705ed3d91bf41U, 0xbdf7dafa3d872491U, 0x3d23beb3bc6cea3dU, 0x3d917d503d8a7396U,
  0xbdb12aeebd713750U, 0x3d06ba033dd37d34U, 0xbdddbdb93dad4473U, 0x3cf4d30ebc93daefU,
  0xbb72a50cbdd7890aU, 0xbd8b01f2bdc80aaaU, 0xbd444e433b7b441eU, 0x3d91bdf6bdc07265U,
  0xbd9c9933bcec5615U, 0x3db7b0edbdca5ad9U, 0x3df623093de66313U, 0xbd0a6288bd102921U,
  0x3a92324cbd2e39c3U, 0x3d794d903dbcfbd5U, 0xba094445bda2d2d3U, 0x3db0e4e1bd2f0799U,
  0xbd618d113caeaf44U, 0xbd876e623d2ec3b3U, 0xbd84f832bd0227b0U, 0x3db9ac253d2d51fcU,
  0x3c68f4b1bdaf42ebU, 0xbdbea7d1bde51872U, 0x3d9bde8a3d6a7557U, 0xba5d636f3cf16efeU,
  0xbd354aadbd927f7cU, 0xbdbe3bf33c2bfdccU, 0xbc93045d3db573c7U, 0xbdc8644dbd2b02f9U,
  0x3c58f86cbd25efc3U, 0x3d5f20433cfe5431U, 0x3d0767bb3d7c0dbeU, 0x3d8806eabdea7177U,
  0xbdc71ee03deaf28cU, 0xbb4f3da4bd99b58eU, 0xbdb713f33be5a383U, 0xbdef8df73bd1b6dfU,
  0xbd2480373d669f91U, 0xbdf581ecbc4ad5c8U, 0x3da6ea49bd9175aaU, 0xbd51f28bbce5b7abU,
  0xbde45aed3de5e60fU, 0x3db5bae1bdb99674U, 0xbd9b7c2a3d58f31fU, 0xbde1c5893da2c9e9U,
  0xbd150e20bd75f108U, 0xbe010d35bd92305aU, 0xbcd35059bdba8240U, 0xbdd00bfe3d96c821U,
  0xbdaa3159bdd86610U, 0x3d88910fbdaa6e59U, 0xbd76a2dfbd9fa768U, 0xbd9f63be3d552973U,
  0xbc13943cbc2b2e5dU, 0xbd8267c9bba5f7fcU, 0xbe0023773dd00acfU, 0x3dacef9f3cbe310aU,
  0x3d66a28ebd8e30a9U, 0x3dbb6c30bd150d48U, 0xbd2b69fabd954095U, 0xbd2420943cca7734U,
  0x3da67e3dbd381c7cU, 0x3dd397fbbd2181f4U, 0xbca0d20bbc40dd99U, 0x3dc0438abaad6be7U,
  0x3da4972c3cd0b830U, 0x3dd6cb023cf713cdU, 0x3c90250a3d1a41ebU, 0xbb6780bbbdaf0d95U,
  0xbd50493ebc97333fU, 0x3d4b5c713d999d36U, 0x3d010c45bd24085fU, 0x3d70ffed3d93d636U,
  0xbdcfabc03c89686cU, 0x3d6fa77b3dc7fb70U, 0x3d93bb6bbd04a064U, 0xbb3630003d6df156U,
  0xbdcd6fc23d83de2eU, 0xbd8886b8bc677039U, 0xbdd689cb3da187f6U, 0xbd9c90e33b3546fcU,
  0xbc2b4706bd95930dU, 0x3d92744a3dc8eae2U, 0xbda4c6b33dadb4acU, 0x3c8a32e8bdf10ee2U,
  0x3d89102f3c908c1aU, 0xbb24ab40bd9b3f00U, 0x3df5baf03d1cd460U, 0x3b924f413e01f301U,
  0xbd70a3f33c4c6ff3U, 0x3d63382a3e1009e6U, 0x3dd2fbc0bd35e52bU, 0x3dee0ed33db427c6U,
  0x3e0061363e16b4ffU, 0xbd99919e3cedc7e0U, 0x3c2bcec33e018f6fU, 0x3de761b93d929b18U,
  0x3ddc92d03d9ab453U, 0xbd1ac09f3d28eca4U, 0x3d8799143d990323U, 0xbdab7b0e3e0ee077U,
  0x3bf1719ebd4a9577U, 0xbd0f2ba4bd0594bbU, 0xbd39c894bd8c446bU, 0x3e17447f3dbda16aU,
  0x3d7df9a53c4d4d61U, 0xbd7eedf5bd378307U, 0x3c80ae013e14eee6U, 0x3d63412a3cf7274dU,
  0x3ccd1bc5bcc64411U, 0xbd5036f33d8f787eU, 0x3e098c7e3d5e1fbcU, 0x3cc7edc9bd26a8ccU,
  0xbd946afdbce07e8aU, 0x3e11131c3dc07dd6U, 0x3e0e34a33e026361U, 0xbd90bf713cff9a38U,
  0x3d8dba61bd37e692U, 0xbd7d0de0bd9543e3U, 0x3d7cfb4f3d82d187U, 0x3e168f093d61462eU,
  0x3c1ec4aa3c0f28caU, 0x3d739d39bd533543U, 0xbd5c219abce14005U, 0x3e0c93a63dd09257U,
  0x3d7adb803d877320U, 0x3c2e0b643cacb0f2U, 0x3d375d763d8aa8d7U, 0x3da58041bcf4ef43U,
  0x3cbc41603e1623a3U, 0xbd7fa2a0bd06e698U, 0x3d181fb53d2377c5U, 0xbd0d694e3c8549dbU,
  0x3d460f6c3dbb283dU, 0xbd6d4c383de02969U, 0x3de9427dbd93d505U, 0x3d81ae0e3d9c470cU,
  0xbb199b90bcaf305cU, 0x3e1705093de8a77aU, 0xbca806bd3d7c4cfeU, 0x3dda6c8b3d69ab07U,
  0xbcdda0393bcc6f86U, 0x3d5127153da691edU, 0x3afcb0a13db8e8b8U, 0x3cd0e5e0bc13104bU,
  0x3dc19406bd67c77cU, 0xbd56d2223e0567d3U, 0x3cbc7f723e067eb3U, 0xbd9665dcbda36a69U,
  0x3db75c7d3e0169ffU, 0xbd36dd553d347555U, 0x3cb15125bc25dcdaU, 0x3de4bf94bd0fd743U,
  0x3d66b72e3dbe8ccbU, 0x3d8b9333bd2406cdU, 0x3dfc4f8d3e0ea3a8U, 0x3d7189e2bc2761fcU,
  0xbd7066ed3e0487aeU, 0xbd9d68113c642cb7U, 0x3d7d86b43d1a6236U, 0x3d34acd63db7a833U,
  0x3d5c54e53d5cc370U, 0x3c456fff3d94d526U, 0x3de1c5c63d4f8cbfU, 0x3cb3706f3dca19a8U,
  0x3dd90fdcbd5d9732U, 0x3cbf63e13cde2cf4U, 0xbd09e5303bc58977U, 0xbd089edd3d8d8fd4U,
  0xbd6fdea43db82c3aU, 0x3e0b142cbd6ab22bU, 0x3d4c84403e19ffcfU, 0x3d8035013dbfeebdU,
  0x3d887f123de688b4U, 0xbd4a05333e0804cdU, 0x3c85f923bd9ba6c3U, 0x3dfda30b3d8f3d7aU,
  0xbd3466573d79552eU, 0x3dfe20c73e07f1a0U, 0x3cb229653de492ceU, 0xbc45227e3d89b56cU,
  0x3b22cdfc3d7264a4U, 0x3d88b0283dbf5ba2U, 0xbc0917eebd636f44U, 0x3d567bb03dc8c289U,
  0xbdcf69e6bd7a40e7U, 0x3dc3f239bd20be48U, 0xbdd68384bd997b66U, 0xbda570a03dddcf37U,
  0xbd5a3b733c9c3f0fU, 0xbdb7dfd0bdb137e1U, 0x3c6d9d823d2f4e37U, 0x3d872403bd95e9d5U,
  0x3cb5ede8baa6a611U, 0x3cd336463d8fce90U, 0x3dc79800bddcbcbcU, 0xbd6b1616bd2817beU,
  0xbca983963dcf2d64U, 0xbdc65363bdb3fd03U, 0xbcd7897fbda0ec52U, 0xbdc786bbbda69626U,
  0x3d392c6a3c8cd5ddU, 0xbcc8396ebc53186bU, 0x3d0da00fbb157b64U, 0x3cc818afbbc1d063U,
  0xbd97ed213d892970U, 0xbdc8e1cfbde4d59eU, 0xbde4966fbc0b409dU, 0x3db1d1313d14236dU,
  0xbb8d888b3dc43ffdU, 0xbdf47ba6bdf6b817U, 0xbc6070b53d412024U, 0x3d9e8855bd86d39bU,
  0xbc4313103c465007U, 0x3da4fde2bd5bcabcU, 0xbcc44f483d89494cU, 0xbd562a393d645294U,
  0xbdf92ff03cc14c78U, 0x3dc7e2d4bcf58490U, 0xbd7f4fb43daf3ce4U, 0xbdd24d9cbd09e4dcU,
  0xbcb265a63d5157f7U, 0x3cb03302bde67ca5U, 0x3dde263abd4166afU, 0x3d3379f2bdd503dbU,
  0xbc499be6bde99f81U, 0x3c94d696bc068a88U, 0xbdba6f1cbd6c5327U, 0xbb1850293de10a5aU,
  0xbcd5fab53ca0790dU, 0x3d05334c3d28027aU, 0xbd0a5b9abc96d479U, 0x3d8a2676bd289c80U,
  0x3da77759bc2cb23bU, 0xbde36069bd0296ecU, 0xbd116c703dd5c067U, 0xbd551acabd9a2f08U,
  0x3c9a77df3d1cf15fU, 0x3d869c813d19dfcdU, 0x3d4507a43c6c7a42U, 0x3de0ec723d82d89bU,
  0xbd94e42bbcb3b03eU, 0x3d166cac3da293b7U, 0x3c5c382339edea72U, 0xbd7db43cbdb8e229U,
  0xbddeb4b3bd88ed95U, 0xbd517e613ce4a8f0U, 0xbcfe5fc3bd828a06U, 0xbdcacbb1bbaeb519U,
  0xbd7d2945bd46300cU, 0xbd06b55d3d440c38U, 0x3ca7c3b93d82c53eU, 0xbde88377ba8c45c1U,
  0xbd1d9fd13c2747adU, 0xbc9ed8ef3d9c0fa0U, 0xbdde3f103dbbf82aU, 0xbc99747ebcd4915eU,
  0x3d21af81bdbdf5f3U, 0xbd9c767abdf4b9daU, 0x3d3fd2f0bdafee06U, 0xbdd06f793cd8a55bU,
  0x3da6dcffbd2706dfU, 0xbd194f223d41c701U, 0x3dd7b641bd935da2U, 0x3d47307dbdf50620U,
  0xbdef5d283dbd593dU, 0xbd040817bcb49f6bU, 0xbc3927b7bdbc700eU, 0x3d89edd7bda051e7U,
  0xbc4458d4bdfb0e58U, 0x3d0a8a8abdb61712U, 0x3c8bf4123c5aa5cdU, 0x3dcfa164bd263b68U,
  0x3bc5f7d33d6e0f58U, 0x3d3e75d23da94dbfU, 0x3d3833dbbdc74a13U, 0xbd08750dbd45344aU,
  0x3d3d62123d83f4ccU, 0xbd974c1a3dc5bd5fU, 0xbc7189643d8ae14dU, 0x3d90fe7e3d4b9587U,
  0xbdaadc2cbde61274U, 0x3d03d059bd9fff58U, 0x3d62cd6bbdad5832U, 0xbdbc492cbd55a20cU,
  0xbdeaea133ca7708bU, 0xbd54baccbdf9e8a4U, 0x3b6eee7d3dcfa9f6U, 0x3d432eaf3dd052b4U,
  0x3cb89d4fbda53b69U, 0xbc90cd0bbdba95dfU, 0xbd520bd03dc4e726U, 0xbc78125fbdc9da9eU,
  0xbda007d6bdf49b6cU, 0xbd1317d6bda4977fU, 0x3de2139abcef90a5U, 0x3d261d953c37596eU,
  0xbde90e5cbd00e1d7U, 0xbda67211bd87af78U, 0xbd8242963d9be765U, 0xbdcd0e37bca5492aU,
  0x3dd1681c3d109dc6U, 0x3ce651f8bc8e7481U, 0x3ddbc3223d81e1fbU, 0xbc5263b23d1c21d0U,
  0xbcfc9c9e39ef0afeU, 0xbc2e0c0f3da7f6b7U, 0x3d1952973d8c1623U, 0xbdeb88313dc7070cU,
  0x3b46a333bce0b86bU, 0x3b534d74bdf3e474U, 0xbde1b8abbd85df8eU, 0xbcf1c3c9bd083312U,
  0xbd7a5aee3d567d5aU, 0x3d6854bfbd491f94U, 0x3dce0c5b3dbcefd8U, 0xbdd859ec3da3a9afU,
  0x3de1f5ba3cacbf60U, 0xbd4d133e3b339a0cU, 0xbd2d2837bc8c5f8bU, 0x3bfcc0a13d6b6848U,
  0x3db688f7bc11e74bU, 0x3db6cf26bc328ff2U, 0x3cd1c72abce7c50dU, 0xbb26ee55bdc95adcU,
  0xbc0287debc9fc404U, 0x3d850fc5bdcc74a8U, 0x3d59021d3d8911c7U, 0xbb8cf01bbd4d036eU,
  0x3d817f1ebb1cd10dU, 0xbd6f5dfd3d80024dU, 0x3db99a2b3dbcccc1U, 0xbdc53b8fbd1e266bU,
  0xbdf03092bd7fc6aaU, 0x3d967e983d984466U, 0x3c2776ec3cf98233U, 0xbdf674aebd69d027U,
  0xbd8f0c283c517181U, 0x3cfdb8793d1e30b8U, 0xbd217d2cbdadf821U, 0xbd3b2b8abdadca46U,
  0x3d97faf3bd968972U, 0xbd3913ac3ad6d497U, 0x3cb3d2403da66105U, 0xbcecd02abd206007U,
  0xbb0c95babd38486eU, 0x3cb8c3edbddfee4bU, 0xbd77438b3bc74ab7U, 0x3dda61963db4dae9U,
  0xbbda203cbdc42185U, 0xbd813b3d3d9ae963U, 0x3dcb09253d2bd15aU, 0x3c5cda1fbd79cf6aU,
  0x3dbe2f2e3db50918U, 0x3c7fa331bdaa2ea7U, 0xbd85a3a13dc59f0cU, 0x3dc56490bd15760bU,
  0xbdcd63643d98bdb1U, 0x3d0735adbd39d60bU, 0x3d3236103ddf26d6U, 0x3c4cb4763db268f5U,
  0xbceda425bb6df97aU, 0x3d68d3a73c10c71aU, 0x3c0124713dc78933U, 0xbca10059bde0b338U,
  0x3d9232bf3dcd944bU, 0xbd82b8e3bdf40138U, 0x3dc08c103d90ef22U, 0xbd8fa0063d3bfd6bU,
  0x3d806e72bdcfc647U, 0x3cc7c5eebd60808eU, 0xbd5c6afbbde5da4bU, 0x3d0786993ab7c4d3U,
  0x3c484bea3c80a28bU, 0xbd9ffd6abd012cf0U, 0x3d9a1768bd4c580fU, 0xbdddcfd43cc51aa2U,
  0xbd58bc933a7f9792U, 0xbde10fbdbde413b0U, 0xbceb74c8bc88c9a9U, 0xbdb33ec7bdf99e42U,
  0x3bda3303bdd2cd5dU, 0x3c36a0223d06db89U, 0xbd80a15bbdcc1f64U, 0xbd9e9a7b3d385d02U,
  0x3b9555c0bccc18e4U, 0xbd8ab7503cf74dccU, 0x3d766a9ebde07d40U, 0x3dd3e0d33dd10467U,
  0xbddde0bdbb9fd810U, 0xbd1aaea03ccb5e34U, 0x3c6d9228bd170b50U, 0x3d912a71bdea6226U,
  0xbd920354bd0fc3feU, 0xbcf0f2383d98d479U, 0x3c3745f8bd857e66U, 0x3ddd3b8fbdb0dcaeU,
  0x3dde38e93d72321aU, 0xbae846003dbb7b5fU, 0xbd89b2e8bdc0ee46U, 0x3d62e10a3d99e507U,
  0xbde12985bdd5a137U, 0x3d5023c63c9b7874U, 0x3de34bc3bd3d65deU, 0x3d9610e73ded85e9U,
  0xbb8412103d3ff0f2U, 0x3d96d7b1bd4fc154U, 0x3c9fe00cbd9825e0U, 0xbce2e5943d369a62U,
  0xbd6a5652bda1352eU, 0x3d401cfebd156156U, 0xbde8f758bd96188aU, 0x3d956965bdd3cd06U,
  0x3dd382cfbda570bcU, 0xbc3c3d70bdab09b4U, 0x3d667a16bdea6599U, 0xbd33e9223d217ec6U,
  0x3d53edcebdbcbc88U, 0x3d490c2ebd257066U, 0x3d0e1a423d20f352U, 0xbde42dbd3d952793U,
  0xbdc29624bd9fc4c0U, 0xbc08b3503cc62314U, 0x3b5c0640bd94e1a5U, 0xbde9444abba4cc90U,
  0x3cbd4b44bd4f9f98U, 0xbced7c28bccb8238U, 0xbdd1bb573dab2823U, 0x3d8fba1f3c09b298U,
  0xbd780a29bc2f7640U, 0xbd6b40abbc503758U, 0x3c84c8a4bd75c993U, 0x3dbb8b23bd5f7dfcU,
  0x3d7d08babd623b8eU, 0xbdd77a85bdca07f1U, 0xbdc0253c3dd08309U, 0x3da42edfbd3ab9a0U,
  0xbd62c53b3d94eaf1U, 0x3cff9c343db78f05U, 0x3d747ab2bde2b3c2U, 0xbda9b6303d9a0487U,
  0xbcb5f4103ca10b44U, 0x3d074842bda2bbe7U, 0xbd9b83963d94ffdfU, 0xbd83433c3ccf30acU,
  0x3c2ef3e8bd134138U, 0x3dd6aa47bdd42d74U, 0x3d31c30abd724631U, 0xbda815f4bdc590dcU,
  0xba920680bd91cb92U, 0xbdc834e2bdc85486U, 0xbde40aea3d11e5e2U, 0xbdbd6099bc657088U,
  0x3d434b3abd6f076eU, 0x3d79ddbabd9819c4U, 0x3d94b7293cceb034U, 0xbd66ea55bd2e91b6U,
  0xbdd28eadbc83540cU, 0xbdc8b238bdd3c7e1U, 0xbd4d436ebd27c63aU, 0xbd9ad978bbff3c30U,
  0x3deb2e1bbd8edd7eU, 0x3c8959a4bd2c8712U, 0xbcd71b883d01fd16U, 0x3dab50533adeea40U,
  0xbd1a40803ddc07bfU, 0x3ca2306c3c887804U, 0xbcca38b4bc085708U, 0xbde1c0b1bd2b81e2U,
  0x3de23361bd90d1b2U, 0xbd2add4ebdc22667U, 0xbd72ee8bbcfd8ab0U, 0x3db32ab3bd143e4eU,
  0x3cfbc004bdaf2a35U, 0xbdd5c1943d896b17U, 0xbccb8008bd2cb7d4U, 0x3d340d7e3d8b7211U,
  0xbdaef972bd9a5fc6U, 0xbd12581c3d8d6eabU, 0x3d1c20923d9c0435U, 0x3dc9d3ad3dcf6241U,
  0x3cb11b1cbc733170U, 0xbca6f48cbd9b8447U, 0x3dce9815bdbdb82dU, 0x3a1fdb803dd65ee1U,
  0x3dc0b2c3bda5d569U, 0xbdb096aebd8150d7U, 0x3d1c360a3d54890aU, 0x3d960f0dbd7a4c0bU,
  0x3cf74764bdc2a390U, 0x3dde5f9bbda546e6U, 0xbdb46110bd879b4eU, 0x3dd4f0713dea3a09U,
  0xbdcb0ce8bca7bdb8U, 0xbd30ee8c3ac4d280U, 0x3dba04793dd9da71U, 0x3d31da8e3d927f87U,
  0x3d07cd06bd563d08U, 0x3d0477debd050b7aU, 0x3d72af22bbf47280U, 0xbd926e48bddea8d2U,
  0x3dc05a133d8e0795U, 0x3c87e59cbd709d9bU, 0x3da830c33d20c9ceU, 0x3db95a9fbd8fcb9cU,
  0xbcad1e38bde1cac5U, 0xbd0b8e9abdd1edf9U, 0xbd819303bdcd7f73U, 0xbdc8a3083d8768e5U,
  0xbc6eb210bd8d462fU, 0x3ce26b04bd7ba5d9U, 0x3d198c5ebd2fff48U, 0xbdc543f6bb9ef980U,
  0x3dc010d13d0d0ec2U, 0x3d846669bd898b3cU, 0x3d53493a3dc8207bU, 0xbc4e0f003c9c8aa4U,
  0xbdb76a0a3ae564c0U, 0x3c551838bd9c9268U, 0xbd6d3ed8bdaac7c4U, 0xbda54a3ebda24f28U,
  0x3d10eb463d159ab2U, 0x3dd02b5b3de4e4d9U, 0xbd99da74bd8c4508U, 0xbd04ab04bd87b499U,
  0x3d81b4e93d9d2a51U, 0xbc72ff983dbc5009U, 0x3d16a9c2bd46f184U, 0x3cb7288cbd42e968U,
  0x3d20c00e3de0527fU, 0x3d4c235a3d4a9e96U, 0xbd824ea6bcd891b4U, 0x3d7760eebceafa94U,
  0x3ceecfa43d0b3f0eU, 0xbc838510bd381fccU, 0xbd78a9683defd559U, 0xbdc1b4c83d15c136U,
  0x3db65b5bbd5c74c8U, 0x3dc7b6a7bcf70908U, 0x3d869141bddbfc01U, 0x3ddc4aa73d1bbf0aU,
  0x3dec35793dba9931U, 0x3d8bd8d5bccd74acU, 0x3d90c4dd3b908490U, 0x3d2f031e3dbbfdddU,
  0xbd85b6e83c825efcU, 0xbce55950bd07a96eU, 0xbdc662ee3d2603c6U, 0xbc8242ec3cdadf8cU,
  0xbda04b44bc979770U, 0xbd7bcb973d8a091dU, 0xbdd50b4bbdb2bda9U, 0x3da179e7bd5ee3b8U,
  0xbddda6c9bd1e8f96U, 0x3db3e92dbdcfac79U, 0xbd54e0c0bd90b1ecU, 0xbd93b9f1bd43ed52U,
  0x3de1ca0bbbdceaa0U, 0x3d2459a63c9321a4U, 0x3d5897d6bd3c9512U, 0x3d2a44923d2d3092U,
  0x3d890feb3d65e73eU, 0xbdb087b63dd9a673U, 0x3d9edbf3bdcb2dfeU, 0x3d0bc7eebdede785U,
  0x3d398eb23da4a6e3U, 0x3cd7adf4bcdf303cU, 0x3c9821f4bab24f00U, 0x3dc826f73d66a296U,
  0x3d9d05c13dd4b675U, 0x3db8de4d3dac6e69U, 0x3d8ba263bda93978U, 0xbd62f1293dee3349U,
  0x3d94d31bbdbaa6d4U, 0xbd97e43ebd7af2d5U, 0xbd73021bbd2ddd74U, 0x3ce3a564bdc97d96U,
  0x3d3d8eea3dd09093U, 0xbd8f86bebcb1f7e4U, 0x3cbb972cbde557fdU, 0x3daa793fbbe08440U,
  0xbdbe55ab3deb2173U, 0xbd4a696e3d2fffd2U, 0x3dbb931b3dd2b8b5U, 0x3cf5249cbd17eef8U,
  0x3dfc3697bc4598ebU, 0x3da62b21bde6dd44U, 0xbd3313f6bd933130U, 0xbd84e181bd8f0b4bU,
  0x3cd80190bd34d01bU, 0x3dddc1633dfbec39U, 0x3d573b3f3da72e80U, 0x3ce91cea3dc9ed54U,
  0x3d8fcb6c3c174dd7U, 0x3df3953abd08c38dU, 0x3d8f87543d226036U, 0x3d4ade413cba77f4U,
  0x3d71c4163dd7f8d0U, 0xbd6f6fe93d44ada8U, 0x3d2c79e1bd17b7d4U, 0x3d090f8a3bf402c0U,
  0xbc3bad483dccbe9fU, 0xbd1d20193d72dbe9U, 0xbdb35ecb3c2da4b3U, 0xbcfe54133dd69f44U,
  0xbdd4f2a63dca2f9fU, 0x3da9b69dbd3480a6U, 0xbdc353673da3021dU, 0xbbbcd6843cc2c9bdU,
  0x3dec25ecbd0b946dU, 0xbc216fef3d84ee2bU, 0x3d7c7eca3b951f1bU, 0xbc88b3273ddf719cU,
  0x3dc20acabcddf783U, 0xba7bbc94bd869fc5U, 0xbd027edabc915a4aU, 0xbdd784bfbda3022dU,
  0x3c47106c3d632488U, 0x3ac58ac23b18c0c1U, 0xbd5a7ccd3c734004U, 0xbd53a578bd3a0c55U,
  0x3daabe273cc5d3a8U, 0xbcb8b92b3db50f19U, 0xbd4f54c83d3dd8d2U, 0x3d83348dbd2900e6U,
  0x3bcfd3fa3d90a6b2U, 0xbd4a57793d53e7d1U, 0xbbbd494d3d14cf78U, 0x3d0f0f65bd5237bfU,
  0xbda35e8abdd06bf3U, 0x3da76f043da1ca19U, 0x3da6e6dabdc48991U, 0xbd0791703e00395aU,
  0x3d13ee5fbd82d0bfU, 0x3d36ecb4bdb22476U, 0xbd071c62bd95766bU, 0xbd8a96c8bd7d10f4U,
  0x3d0268aebcf56816U, 0x3c161f973d45bd57U, 0xbb87f6563c5bb16dU, 0xbd1700763d830f4dU,
  0xbd74d7683e01b5a8U, 0x3ca800b0bdc6ac31U, 0xbc7c2fed3ce8b29bU, 0x3d22f61c3d5e0cc0U,
  0x3df2110c3d6f7cfdU, 0xbd3c779d3dcdeb21U, 0xbca72da7bcc5e5c4U, 0xbcf4bc4c3d9dcb81U,
  0x3da4c1f63d375476U, 0x3d57e53fbdc55210U, 0xbd5b5bf43e0756f8U, 0xbdc05774bd0ef12dU,
  0x3c817fb63d9c905aU, 0x3d135b693dd0a85aU, 0xbdc6074fbd4b4f7cU, 0xb9fe78d7bd5c983fU,
  0xbd5a2248bd64b244U, 0x3d2b04303d7835e1U, 0xbd6315383dc11619U, 0x3d9c6d743d84bb9bU,
  0xbd5460093da931c6U, 0x3cb3395c3dde5bfeU, 0x3dfbd84b3ca6e268U, 0x3d83f74e3d300bcdU,
  0xbb2b960abc04ace5U, 0xbb40bf9b3dc4e527U, 0xbd4f8387bd3e6e2bU, 0xbdc4843ebd846a19U,
  0xbcfe8a8b3cbdf6b2U, 0x3c726edf3dc896b2U, 0xbccadefdbd03b3cfU, 0x3de5795b3dc34a2eU,
  0xbbeda957bc0f045dU, 0xbdb0a045bd859bc4U, 0xbd9a843c3d4356b2U, 0xbdd381383d736814U,
  0x3c4454b53d4f84f7U, 0x3cea80abbd6f110cU, 0x3d0c48363dc4daabU, 0x3c6e77a13d31c2daU,
  0x3df8b1333de3e787U, 0x3ba9e6ac3d8da810U, 0x3d3411403d66eb39U, 0xbdb1b34e3d5278e3U,
  0xbbf46416bd5e7cb0U, 0x3d4bc5e23d7647adU, 0xbd541b4bbc96a01aU, 0xbd2adc383d904240U,
  0x3d90ef2ebdf91914U, 0x3bd0243f3d3ca04eU, 0xbe0115c93c5b99f6U, 0xbdea480b3d854bfdU,
  0xbd9c58453c28792fU, 0xbb9f134a3d0c8655U, 0xbdf3d46a3bac085bU, 0xbd5f0501bc44a8f6U,
  0x3d8eccc6bdf055ddU, 0xbdb716cebd6b6ad7U, 0xbd63b35d3ced05b8U, 0xbd00e131bd101a15U,
  0x3cc963203d8c1b7cU, 0x3d047de7bdfa42b1U, 0xbd5296a9bde0cc60U, 0xbd9f62a1bdcb0368U,
  0xbde412d73cd54e67U, 0x3bac25e1bd8342acU, 0xbe016c87bdaf7726U, 0xbdd3e866be05b16bU,
  0x3c693987bdc5e1abU, 0xbde284693d917fa9U, 0x3d40eb02bd151dd5U, 0x3dbf650dbd9d710dU,
  0x3d853ff1bdaaab09U, 0xbd2cec173cc38d61U, 0x3cc531a3bc3855cfU, 0xbe0161d03d064609U,
  0xbcb1dbf03d11388eU, 0x3c89e0babbd385beU, 0x3d67fbfdbdff1999U, 0x3d2095cfbde71bcbU,
  0x3d52dcdfbddfffbaU, 0xbdd509713d2fa92cU, 0xbd99fc693d948793U, 0xbcec2e0ebdd67480U,
  0xbdefb88a3d8b1172U, 0xbd17b836bdc9ee6eU, 0xbd93c8a73d40ab7cU, 0xbdbeffa6bda37ab9U,
  0x3daaf6623d569012U, 0xb9fc73e43ca691a3U, 0xbb972bc43d323949U, 0xbdcd7e14bd262a38U,
  0x3d3641443c0af8e4U, 0xbc294430be03a347U, 0x3d96e4253d9a24d2U, 0xbd344655bd417f7bU,
  0xbdcb107e3db8adddU, 0xbe020706bdc5214dU, 0xbd6086963db65135U, 0x3d868b6abd521fa3U,
  0xbe0cd19f3d72d672U, 0xbd67d4c0bc00f5b8U, 0xbd8884423daef717U, 0x3da0e4613cda2a29U,
  0x3db232e53db66238U, 0xbd698d963d107fc8U, 0xbada406a3c759be0U, 0x3d83cd55bd3fc005U,
  0xbdfd85cebd42e6f1U, 0xbd8faf4ebddf0995U, 0xbdb9ce053ca5e52dU, 0x3d343fa4be091f15U,
  0x3d7becd6bccfd951U, 0x3d19c59f3dbf3ee1U, 0xbdfb66de3cf1efaaU, 0xbdd580c6bd037492U,
  0xbc821981be00cfdfU, 0x3c2dc82bbd6be257U, 0xbd84b7c43d6b433bU, 0xbd56b0d33db04268U,
  0x3c8f1d993bd26012U, 0x3d924834bd512029U, 0x3a81d814bcc5369fU, 0x3daf41cdbe0e1be5U,
  0xbc141876bdc3204eU, 0x3cf214dc3d8a6d59U, 0xbdd873fcbd964c56U, 0xba02ea103c7eeb45U,
  0x3d2f70963b03bcfcU, 0xbdadcfe03d8a657eU, 0xbd828ce73d89d30dU, 0xbd4525a2bd4c6294U,
  0xbd70700f3d4fa793U, 0x3bdc543abda53c3dU, 0xbde50c17bdf509ceU, 0x3d403485bd813423U,
  0xbd868a68bd4bafccU, 0x3d0d75babd59a4faU, 0xbdb81b133d15ed24U, 0x3d770c1f3db331d8U,
  0xbde5b572bd9a6faaU, 0xbcf2c326bd8c14baU, 0x3d0bdbd4bdcf6bb6U, 0xbd08aa673d40ae0cU,
  0x3e1b96cb3d6af0c3U, 0x3e2391cd3b45ef3fU, 0x3be67f443ce9975bU, 0x3c5683483d9a0c6bU,
  0x3e3275743e39d73bU, 0xbd1e96843e268065U, 0x3e2cca1a3ca16508U, 0x3b8857033e0bc8f8U,
  0xbc70c9ee3b0b7fb5U, 0x3e0944943e10c347U, 0x3e1b5e7b3e2d77f2U, 0x3e27f5f33b25f95bU,
  0x3d52ed623e06e5d7U, 0x3e1259683e3c8178U, 0x3d260cc13e06f4e1U, 0x3e1bfb483e271b65U,
  0xbd3f3c2b3ae02446U, 0x3d0cf9973d9eb076U, 0x3d8564d3bcc463ccU, 0x3dbe8bb33dfbc7c9U,
  0x3def5b203dc9571bU, 0x3e0847fe3dd4a10cU, 0x3cecacbb3e376b56U, 0x3bfc2eed3c485bf3U,
  0xbc0991fabc143e49U, 0x3d8fdd343dc5dd31U, 0x3e27c1893d956206U, 0x3dfcd5f03dec35afU,
  0xbd498da8bc86ceb6U, 0x3c608e4ebd496de8U, 0x3da15b03bd0c556aU, 0x3e2ed93f3d99edf1U,
  0x3e1745a13da4727dU, 0xbb9933a33dc293b7U, 0x3dcffd883ddc8a82U, 0x3ae5eb58bd132102U,
  0x3e1a666bba0d5261U, 0x3d665f123e16ea97U, 0x3e1b94f83da8e7f7U, 0x3c08f2283d680f9eU,
  0x3e0b3e993d45a7cbU, 0x3d66583d3c470125U, 0x3d2501333dc0dbacU, 0x3dd735d13da9c94cU,
  0xbcec060b3e21ff72U, 0xbd18a66a3dd9d3a1U, 0x3db4481d3da750f0U, 0x3d48e6343d2c25ebU,
  0x3db6c7c8bd1123a2U, 0x3e0f87ee3dc20f69U, 0x3ccda9333d84d457U, 0x3df02f3fba0681f4U,
  0xbd5ef4503e356734U, 0x3df1c6ddbd5586e8U, 0x3da3943a3dd60e0cU, 0x3c9c39f83df4a3c2U,
  0x3dac191a3d9289b0U, 0x3de332ce3d9da0e4U, 0x3def894fbc522de9U, 0x3d9fbcc4bb19733eU,
  0x3e36339f3de42babU, 0x3d8923143df3ddafU, 0x3d9ea6a93dbb0c2dU, 0xbcb8720f3d8c1040U,
  0x3cf4f7f2bcf8ca1bU, 0xbb109a7a3e1e9981U, 0x3d5c17623da28592U, 0x3df9a198bc3c57acU,
  0x3d76d93fbc8f6a67U, 0xbc38309e3e273879U, 0x3e07b3463e23fbc0U, 0x3d6917673e1cd646U,
  0x3a8e86a4bd3e768cU, 0x3e0c0d7f3db12fe5U, 0xbd24d9373a6ef60eU, 0x3e16d46e3d5812b2U,
  0x3da6d1a03e0af7b8U, 0x3dffbb873e120d15U, 0x3e13cb083db3254eU, 0x3de2e648bd04ff25U,
  0x39fac0273e2595bcU, 0x3da5fdfcbc11b1f0U, 0x3a5635643bbc4c88U, 0x3de3a5013df9dc9eU,
  0x3e0bef8c3c892062U, 0xbd31d0893e34df4bU, 0xbd191ce63e0e1d9aU, 0x3d8dde903da6df72U,
  0xbcc026663dc0b97aU, 0x3e0cdf923db59774U, 0x3db5f555bd5ad977U, 0x3e022dd13d54c1e9U,
  0x3c6478c9bd30c713U, 0x3d86388dbc53375eU, 0x3d95f43f3e01f934U, 0x3da0ec6bbcd46f6bU,
  0x3d302f74bcb767feU, 0x3e2881a83e193597U, 0x3c2a926dbd5a2937U, 0xbd0cf9843d87f8bbU,
  0xbe153a60bde6f507U, 0xbc78f9463c9a8feeU, 0x3aa2905fbd902f87U, 0x3dacea1a3b943e04U,
  0xbd16e637bc909b67U, 0xbc4cfd2d3c752665U, 0xbd6f7490bdac9f1bU, 0xba8c9058bded147eU,
  0xbdcfcd87bd9bc384U, 0xbcebc52b3d14b591U, 0x3d06b48cbd8957b2U, 0xbdc1fe65be161dfcU,
  0xbd49e049bdfca4e2U, 0x3d787514bdeae411U, 0xbd9d7d7bbe0aa7afU, 0xbe0f9aa93b4f5939U,
  0xbe0db010be15d0e2U, 0xbd1ad1a0bd814e0bU, 0xbdde47333cd437a2U, 0x3d397ec0be0ef2fdU,
  0xbdfaf49abdc37023U, 0x3bf57054be0288aaU, 0xbdc8a423bd5d75c4U, 0x3d4516b8bdc32405U,
  0x3d095a52be0df2baU, 0x3da9794abe0ae09cU, 0x3ccef188bde4e011U, 0xbd31f6ad3d2a64d9U,
  0xbd925db3be07a1c4U, 0xbce68717bd67e69eU, 0x3cf6f7033d5e569eU, 0xbde5bfd9bd140464U,
  0xbdb33d14bd2dd73cU, 0xbc5ded99bd4d7e8aU, 0x3d12738bbd8fcb8eU, 0x3da84bf7bde22869U,
  0x3cedef09bcc18bd8U, 0x3c1a307ebd762637U, 0x3b619c77bcbdfa01U, 0xbdfd469abd8ced6dU,
  0x3d00f821bde876a4U, 0xbd791030bd95a8a7U, 0x3cdcd1c63d31ea6aU, 0xbd563f823bc4f1f6U,
  0xbdb7bc5b3cca39ecU, 0x3b5c0e5a3d67ae27U, 0xbc8e45af3d0471acU, 0xbe067132bceb5b6bU,
  0x3d85e5debcb69393U, 0xbe155f2dbd7e4e5dU, 0xbd7eac1fbdf5272eU, 0xbd70a55ebdae4f63U,
  0xbdfae201bdf431dcU, 0xbe1a0de2bc4f4e8aU, 0xbdb7bd303ce79f35U, 0x3d82deabbd06075bU,
  0xbdf26819be03d028U, 0x3da76c6dbdd8d916U, 0xbcd70b5dbda6da99U, 0xbe1110cf3b96e67fU,
  0xbdaa5d423a910321U, 0xbd83f39c3d446826U, 0x3d81b814bcff2edbU, 0xb9ba35d9bdababa2U,
  0x3a7cd81fbdacf1e9U, 0xbc38eb36bc846940U, 0xbd122d363c8e0dbfU, 0xbd374d67be05264cU,
  0xbd174646bd4d3bfaU, 0xbdaab36ebdef1c1dU, 0xbdb2f136bddf8de0U, 0x3b7f0569be058d37U,
  0xbe05df78bc55b8adU, 0xbe031d6bbcb86409U, 0xbb5cf49fbde430d1U, 0x3d899bb4bdff5af1U,
  0x3a0de0d43c0c54b9U, 0xbbdfa407bd651157U, 0x3da1f214bd874611U, 0xbe19ba96bdb44b53U,
  0xbd1b228dbdeafc05U, 0xbcd5ef973cca93c1U, 0xbd936cb0bd7ead9fU, 0x3c88c4a1bda1e5cbU,
  0x3d77d96ebdf7cb0bU, 0x3da13cec3d85b660U, 0xbdb7b1cdbd16cda2U, 0xbb4781a3be010432U,
  0x3d88a4173d860c27U, 0xbd805008bd8b725fU, 0xbdd462cdbd98e6a6U, 0xbc436fc3bddf68d1U,
  0xbdf318d9bd4f5adfU, 0xbd94595c3d9a5276U, 0xbd86c39ebdc3d9faU, 0x3d3eb253be08d0a4U,
  0x3d6ceaf53bc861a9U, 0xbdc8e3c03da09baaU, 0xbd83dcaa3b4e2efaU, 0xbe030f33bb8a3878U,
  0xbdb1fd0ebd98fe3aU, 0xbd2d55bcbda16d2dU, 0x3cbd46a73d34e5edU, 0x3dbd0c563cddcc66U,
  0xbdbacff8bde094bcU, 0x3d4e691a3d961af8U, 0x3d848ce6bd04fae2U, 0x3d5f5785bdadb1c1U,
  0xbdb95047bdf80b98U, 0x3d29d6e7bcba4a42U, 0x3d4bc09d3d828066U, 0x3d7f65bbbded97d9U,
  0xbc50cfadbd966904U, 0x3da01121bc8de70bU, 0xbd41f0a8bdf977caU, 0x3d0226943d5f5988U,
  0xbd3ecdfbbd20f025U, 0xbd4244e2bd85f890U, 0xbd486b91bc676409U, 0x3db3de6ebd64be92U,
  0x3d8c5b983d6f9b04U, 0x3d8367b63d5feb6cU, 0xbdadcba7bd8caa87U, 0xbcf7e3efbe024205U,
  0x3dd237623dcf8917U, 0xbd0145d9bc9b429fU, 0xbdbd9345bd42cdebU, 0xbde9b7b73d7a899cU,
  0xbd7524f3be04410cU, 0xbd09610bbb0cbc40U, 0x3b8ab42b3dd1a64aU, 0xbdb2d804bdc41d09U,
  0x3cbff8a8bdc32c1eU, 0x3dcff497bb6f6a2aU, 0x3d53bdeb3cb5e248U, 0xbdfb3bd13ce25a61U,
  0x3d46f9c7bd15559eU, 0x3d5f07f03ba10561U, 0xbda19795bde3fbaaU, 0xbc291e7dbd083103U,
  0xbccdcfdebd6f0aeeU, 0x3dd45c66bbd26894U, 0x3d608901bdc8b78cU, 0x3db72217bd532fe9U,
  0x3d2d7926bc962019U, 0xbdb688a0bc0b2ecaU, 0xbd2ef1cc3cb8f028U, 0xbcb4e788bdfa3efcU,
  0x3d85deb13b106d3bU, 0x3c8f32d13ce32a4cU, 0x3dcd57f1bd87894cU, 0xbdbf3713bcb0cca1U,
  0xbdaa0045bd436e50U, 0x3b033b6e3db23c51U, 0x3db1b646bd8d1f7bU, 0xbdbcab983da3fd85U,
  0xbdbd34d83d5b048cU, 0x3d2a1991bc6b47c8U, 0x3c96c0acbd80d79bU, 0x3d79d23dbcf8b37dU,
  0x3d1ddeb03cd9c030U, 0xbdd938e9bd16003aU, 0xbd07e2103db8d3f0U, 0xbd8d32d33dcb6217U,
  0x3d5f6b67bd0e98e8U, 0xbdaadb3d3da03390U, 0x3d0e70e53db23518U, 0x3d90bc5fbd605a8bU,
  0x3dc0b1143ce12750U, 0x3dc66c503db4663cU, 0xbd57336abdd811c5U, 0x3d2173593d2cece5U,
  0x3ce515eb3d92730cU, 0xbdca4ba63d463f62U, 0xbda70614bdfeebbeU, 0xbdcefc373d4701eeU,
  0x3d128bc4bdf3a9e0U, 0xbdf9d93f3d8a248fU, 0xbdabb8723dc917edU, 0x3afa32c8bdc83f35U,
  0x3dd3c1623da6408cU, 0xbd981d0fbdbd7d7cU, 0xbdff72403c5e5c2aU, 0x3db683bb3d89f605U,
  0x3d42e1763cc39f52U, 0xbd7cc95dbcf0f830U, 0xbd4cd51d3d9cdce2U, 0xbd981ba23d26b0cdU,
  0x3cc71866bdd90d0dU, 0xbd95d535bccdd4deU, 0x3d6548e13d36adb4U, 0x3cb2b12cbd388e3fU,
  0x3d6a7369bc21fe42U, 0x3d889283bb9c9f6eU, 0x3d0d6b7cbd97bcf7U, 0xbc01bb513db7fadaU,
  0xbd8b5d743c597a8eU, 0xbcd192ab3b90cce5U, 0xbde12f8c3d106400U, 0xbd7f45ca3d9e503aU,
  0x3de4a31abde0b51cU, 0xbd25c69e3ca3d5a9U, 0x3d0996963dcd74aeU, 0x3db839c1bd61e6a0U,
  0xbd183eac3daaf637U, 0x3ccf453bbd9ca191U, 0x3d4fd14e3d58a76dU, 0xbd7f3b55bc5f5990U,
  0x3d1372583d6556aaU, 0x3b3a6b45bae147d8U, 0xbd093710bd9925daU, 0x3dbdd9dcbda9a6ebU,
  0x3d881a5d3da7fdf5U, 0x3d653b7abd8347a4U, 0xbd83285abd97c2efU, 0xbde27f9b3d85af9eU,
  0xbd9a3cd6bdd7bb3cU, 0xbd7beb163de17332U, 0xbd1e1fd23ca25e7fU, 0xbc9719f1bdd09f79U,
  0x3d0d2cabbd785997U, 0xbdd0573d3c82ec02U, 0xbcb261503d6522e3U, 0xbdf47325bd9528c3U,
  0xbcc932873d79850eU, 0xbd572e183cdcfbe7U, 0x3c1d4a90bc0bbc62U, 0xbbdfc1153dd12778U,
  0xbdcfa477bdc10ca3U, 0xbc9aec3ebd7ebcf3U, 0x3cc9afd03d965b95U, 0xbda4c49f3c1ed07eU,
  0x3da894e33d8ac6beU, 0xbbaa7408bc50d1baU, 0xbdb89665bd197c7dU, 0x3d9aa0013cbbe78cU,
  0xbd89a6623d2c8debU, 0x3dc461bf3d1aa8b9U, 0xbd8e70833d82e277U, 0x3bf824f4bd9fd54dU,
  0x3dadd9ed3d5572c9U, 0xbdb7d84cbdecbc32U, 0x3cbf517d3c1032a5U, 0xbde730493d4805ceU,
  0x3ccaadaebdece6e8U, 0xbcc9bbe83d3cbf39U, 0xbc5759dabd28bebdU, 0x3dbf611ebdaad813U,
  0x3d0a2881bd717b85U, 0x3db9fec03dbd6c3cU, 0x3dc736e93dc7aa15U, 0xbd7b6e403cde27c1U,
  0x3da13b1fbd0a3f21U, 0xbd855554bdc8443dU, 0x3bc6a0443d83cd22U, 0xbdedfdb23c1c58f5U,
  0x3de85d8e3d451a52U, 0x3d5bc0983d1b1841U, 0x3d82b135bdf08848U, 0xbd756b7ebdcf91b0U,
  0xbcc411d6bcc115efU, 0x3dafacff3cef2a71U, 0xbd387e18bdf78121U, 0xbc733504bb8bedc9U,
  0x3caa8f39bc976a57U, 0xbd66d729bddd9271U, 0xbd5c87cf3de05092U, 0xbda0713abd334ca8U,
  0xbc7a63073dc03757U, 0xbd9c1c0b3c0cb6e2U, 0xbc4ad5cc3db773bdU, 0x3d589075bcec277fU,
  0xbdc04972bc078d1cU, 0x3ca61d8e3d899771U, 0xbad5f7703b55e98eU, 0x3d86491ebce0ffaaU,
  0xbda93bd03be655ddU, 0xbb75a1ba3de39c58U, 0x3c52ec24bc927a9dU, 0x3d2f0b7dbdf9bcdfU,
  0xbdc4957f3dbd2c5cU, 0x3d6000ae3c1e52efU, 0x3dbd1a3dbdf5c267U, 0x3c4924c7bcb54360U,
  0x3daa8f6c3d1b54eeU, 0xbd1bd1b0bd9efa5bU, 0x3c80d68dbd5572fcU, 0x3dacdc8b3d31d7ecU,
  0x3cf9976f3c1d5ab1U, 0xbdbe0ea73d8cb290U, 0x3de2ca62bbcedbdeU, 0xbd636433bd41d161U,
  0x3d01de763d41cba1U, 0xbd43e0ff3d036763U, 0xbd8b2a1abddc6fd2U, 0xbdf18e013d19dc40U,
  0xbdbb36babd2cf87bU, 0xbdee945c3d03a7c8U, 0x3d56c02f3d99aae9U, 0x3d4a11a23dd84075U,
  0xbda01191bd69fed8U, 0xbbefa974bdc6e9f3U, 0x3d468d15b6ae225fU, 0xbd39bd90ba9a38aaU,
  0xbd47ff15bc2e286cU, 0x3d92f053bdee6798U, 0xbd290553bd54072bU, 0xbdf3e81fbd9a177bU,
  0xbe01deeb3d85eee3U, 0xbdf0f76fbd8ea11fU, 0xbdf6b92d3c90c400U, 0xbc1af04f3c8a22f3U,
  0xbd44e8b53d0698dbU, 0x3d314341bd428377U, 0x3d4cb12c3d3804f4U, 0xb9bdca2b3cce1cfcU,
  0xbd93ab52bdd49ab3U, 0x3dc3f2633bc13440U, 0xbdc949793d37d72fU, 0xbd10a375bd8a4b42U,
  0x3d46c4973d91261aU, 0xbd33d92b3d188772U, 0xbd4f0c673dc9cdfbU, 0x3ceb30abbc25cad2U,
  0xbdca074e3b0fb145U, 0xbdc59e5e3d9951f5U, 0x3c93f329bda9943eU, 0xbde508b2bd4581ceU,
  0x3d708a073d812d54U, 0x3d981df93d9d1a2fU, 0x3d5ad9a63cdf97eeU, 0xbda17c70bccbea9bU,
  0x3db676f8bc8ce4ecU, 0xbd8e7c5a3d6bc1afU, 0x3b2e688ebd38182fU, 0xbd97b6bb3d4af404U,
  0x3de30f073d41674aU, 0xbdf465eabca5e4a1U, 0x3d99d6c13cb7b667U, 0x3dd36575bdb52153U,
  0xbc76cc67bc486062U, 0x3d9c40d73dacadc9U, 0xbdcefc54bdd30928U, 0xbc6ae7d3bdc5e1a2U,
  0x3cb1bdd6bd43379aU, 0x3d94dfa33cb952f4U, 0xbc900e74bcdcb936U, 0x3dcc0476bd50acaaU,
  0xbc7b5e053d786273U, 0xbc8c6465bc5783dfU, 0xbd1149113dd17b8aU, 0x3d964c72bdb16f6dU,
  0x3d5d202b3d947206U, 0x3ce33cadbdc9ab7dU, 0x3dd448083d3f6010U, 0xbcccc4eabce54c21U,
  0x3d9e33203dbf960cU, 0xbdc777aabddc3827U, 0x3c933e3c3d7dcbc3U, 0x3da9d069bdc47806U,
  0x3d9edd76bd0e2266U, 0xbcdf8964bc489929U, 0xbcaabb393d8dfd83U, 0xbd3cf11e3c6d93c6U,
  0x3d5d66f4bdf00346U, 0xbd57ac00bc78b90bU, 0x3ccc96a9bd7362bbU, 0x3c23746a3d517925U,
  0x3d6a06723c24b527U, 0x3d9c06013d734cc6U, 0x3d2d35893dcb243fU, 0x3cff217ebdb7b9cfU,
  0x3b85c8743d7002a5U, 0xbdbd14e5bde2216aU, 0x3d365294bba801feU, 0x3cc4f4e5bc164ac5U,
  0x3d8149f9b9ce0567U, 0x3dd0da48bddbf211U, 0x3c3217853c8589b2U, 0x3dcef610bd41a427U,
  0xbda5db73bd25728dU, 0xbd8660ffbd89bfddU, 0xbdd97ce6bdad1052U, 0x3dad8ad1bcc4237eU,
  0x3cb9b6fbbda5d77cU, 0xbd9e7947bc93f136U, 0x3d62bebf3dc00d9aU, 0xbdbd0bf13c91c9beU,
  0x3b3caf33bca11746U, 0x3d35e35b3bb3e6b8U, 0xbddbb158bdf205acU, 0xbde76ae1bc79350bU,
  0xbd82e5c13db66becU, 0xbd073eb1bc7680d8U, 0x3d3531d33cb60cf6U, 0xbd8cdac33d6fcd83U,
  0xbdc784643d86700dU, 0xbdacbe29bd1e111fU, 0x3b37edff3d9f1e8aU, 0xbd9fd2d33d71f4bbU,
  0xbdb70baf3dd149dbU, 0xbdc2fe0a3d987485U, 0x3dc3558abcc15049U, 0xbdc21585bb144214U,
  0x3d7d36643d32d135U, 0xbcee28eb3d5e41b7U, 0xbced84963ce5425fU, 0x3df74039bd4efcffU,
  0x3df3f7b73ca90319U, 0xbba36b06bcfbb236U, 0xbd82a70e3d9e9806U, 0x3dead375bdbd731aU,
  0xbd9346a03dcf97d7U, 0x3d871070bde18e40U, 0x3ccbc2193c145a95U, 0x3df2cf773dc59220U,
  0x37927f79bc88ae96U, 0x3d416625bd4cfdb2U, 0x3d08e3a93d47dc1dU, 0xbb65695cbc16f998U,
  0x3943b7d93d2df3eaU, 0xbda507093de58d75U, 0xbdd8931dbd51e33eU, 0xbda10365bdd88b9dU,
  0xbd31438d3da02454U, 0x3d8d02dcbd15c171U, 0xbcdfd75dbde6c44dU, 0xbd8ecc053da791ffU,
  0xbde72532bd6d7542U, 0x3d9dbbe43d8a18bdU, 0x3bf0a0883dc299aeU, 0xbddb94d3bd47bdf7U,
  0xbdc1b32f3da8c4a4U, 0x3dcd9b2b3c9af82aU, 0x3ddb16edbdd5a9d2U, 0xbdb9170fbdb1bf13U,
  0xbcfd5b39bd47894dU, 0xbd8dd2873d384141U, 0x3df6e4fb3d6d49a0U, 0xbd269c123df6dfa2U,
  0xbd81dcc8bd03ffeeU, 0x3ddf5f76bd98bd53U, 0x3de3bef3bd9d5567U, 0x3dbdab30bd942b3bU,
  0x3d6fadf73d6e6b12U, 0xbd7ee65d3df3ac03U, 0xbc588711bb8c5687U, 0x3dc2a2bcbc85b547U,
  0xbcb4d915bcc8139eU, 0x3d168a293c6433f6U, 0xbd0347eebdc35e76U, 0xbc901d8f3dbabb6eU,
  0x3dbff45c3d9d3e1aU, 0xbdd82e76bc80b279U, 0xbd469301bca1ff41U, 0x3c243d78bd9e6dc3U,
  0xbb0698fbbdb58b85U, 0x3dc9c7da3de4cfe3U, 0xbdd165143da0e6fdU, 0xbcacedf53ca58b33U,
  0xbd5ee5223db9f741U, 0xbba631f5bd0cbe3cU, 0x3c8adbe4bd074c16U, 0x3cc57844bcc33bc0U,
  0x3c720b123cde1501U, 0xbc2156f63d29ad6cU, 0xbb252f31bd19809aU, 0xbdc4ec45bd7c7b69U,
  0x3d10f32fbd59725dU, 0xbdd39a5f3da03a5dU, 0xbdaa1e113d309e42U, 0xbd96ac1b3dc22161U,
  0x3d59acf4bdae82d7U, 0x3d4a02d6bd43bf2aU, 0x3df0b7593c6118e1U, 0x3c1f34f73dcbe85eU,
  0xbd89e0e0bcf3175aU, 0x3d87dec5bd5260d1U, 0x3d93517c3db71911U, 0x3d0aa6873dede6a5U,
  0x3d5a5cdcbd3dec3dU, 0xbd4f8d833d5b90b3U, 0x3dee0c68bdd532daU, 0x3cb2a70a3df7024eU,
  0x3ddfbb0abda4a671U, 0x3d57a13e3d91c8ebU, 0xbc4e119fbda21b5cU, 0x3bb192433cb91b0eU,
  0xbd4cb5263d4766e3U, 0x3c313cc93bb9efd9U, 0x3dc7c9b9bdb066c0U, 0xbd170866bd77948eU,
  0xbb8b3f313d40508aU, 0xbd216a31bcdb9a19U, 0x3df2d0d7bdd6a8a6U, 0xbde15b1b3d9c39b0U,
  0xbca064f9bdb4e544U, 0xbd810e133d4d1336U, 0x3b5b00debdb4d224U, 0xbd3ee3f4bd282f2fU,
  0xbdcd469e3cc15bb9U, 0x3db467ec3cb5fc19U, 0x3c92a1d1bdd92fcbU, 0x3c75463abd239578U,
  0x3cc6a44d3cce52b4U, 0x3d5d6586bd5c1833U, 0x3d91cf793d9541b1U, 0x3da76d0b3ccb02c0U,
  0xbdc2bc1c3cf264abU, 0xbdd65ebc3dbc4fafU, 0xbd4bb223bdbfb608U, 0xbd80a7183d1a8aebU,
  0xbda117eebcb13244U, 0xbd019845bd1e55cfU, 0xbc866b59bd766ffaU, 0x3b74908d3dc762f6U,
  0x3d519527bd848197U, 0x3cdf82d33d8f84dfU, 0x3d181b1abc6a39f8U, 0xbd1cb4d0bd0bec3cU,
  0x3d3cd9a9bd69ee9eU, 0x3da8855c3db275e7U, 0xbdf0e720bdca9235U, 0xbc3c8923bc951e65U,
  0x3d1be7a3bbc25c50U, 0xbbd240a83dbafed9U, 0xbda9e6db3d907044U, 0xbd0d7ec03cbc9a50U,
  0x3cce1a35bd0ee17aU, 0x3dbdfa5dbdef7b42U, 0x3d765664bce28d23U, 0xbd9bcc1dbd3f1cc1U,
  0xbe0c9f7abbe93cd4U, 0xbd9fa4da3d24b132U, 0xbd45fb45bd1eae5cU, 0x3dd2d4983cd87ba1U,
  0xbd967bc83d5c2f2bU, 0x3d415a69bc9d2d3eU, 0xbc86d82ebdb0b68fU, 0xbd16f0603d633e5eU,
  0xbd4b27d6bd99ee65U, 0xbe009bc33db1478cU, 0xbd08bc04bb2dc104U, 0xbdf251e33cc033c5U,
  0xbd7faaa4bc34d11aU, 0xbd82ad333d008207U, 0xbd98afee3c948dc5U, 0xbd33bd90bd86488dU,
  0x3da047b0bd8f081eU, 0xbd304559bdd81d1dU, 0xbe00ad983c217056U, 0xbde05b793d9ac927U,
  0x3daf0b8f3ceb9b65U, 0xbd9fa8eabbf23c01U, 0xbdb702bbbdde9ccaU, 0xbd27981abda008c3U,
  0x3d8fb1183d8f942aU, 0xbd19a34a3d791d89U, 0xbdfb5953bd3a106fU, 0x3c330de93d3bfa98U,
  0x3d1d2db1bd21331fU, 0xbcc1eed6bd0e8c03U, 0xbda0944abd3eaed6U, 0x3d9e1ac2bcc4ab7cU,
  0xbc4fca8fbbad9b73U, 0xbd8a98553cfb5611U, 0x3dceca22be040cf7U, 0xbd471dbdbd4a94faU,
  0x3d1923ffbd96efd0U, 0xbdad48a6bde8c173U, 0xbcf96e843db861dfU, 0x3d4c39db3d4c1e0aU,
  0x3cf1d9183c755fd5U, 0xbd06c6dcbd0d0e42U, 0xbd8c11e1bc867c36U, 0x3d3361a53cca3514U,
  0x3da7a974bd9b56f7U, 0xbd158aa23d241087U, 0x3cb3b972bd1d3d8dU, 0xbe08e8b03db41b04U,
  0x3d20e3d5bde03e96U, 0x3dbf6476bde9b087U, 0x3d45d85dbbb11f81U, 0x3d992146be178cd3U,
  0xbd8aa3703d621a64U, 0xbdfd9dcfbca8072eU, 0x3dcc618fbda7dafbU, 0x3da5b5c63d68654fU,
  0xbd576088bd0cc891U, 0xba4894d03c34dc09U, 0x3db3be6bbda99583U, 0xbc9aae7c3d8d3327U,
  0x3d1f7e00bc9bcf0bU, 0x3cf6c9bcbdf43354U, 0xbd5764e13d848d07U, 0x3da3b52dbd1e12c4U,
  0xbd544ffabdf4c3d9U, 0xbce860843d9a4587U, 0xbccae4d43d60edd7U, 0x3c8cf4bdbdc4c454U,
  0xbda0ecdb3bada9bbU, 0x3d3b268ebd152c75U, 0x3de98b16bd47ac48U, 0x3de4e1453d792641U,
  0xbcafce7cbd7c2e5dU, 0x3de9b6323dbca2f0U, 0x3b963781bd98b975U, 0x3db878783cce1ffbU,
  0xbd9782cabd958ca6U, 0x3d90cd673d6e974dU, 0x3e0b781ebd908500U, 0x3cfb4e69bcece42aU,
  0x3e0ade713c0d79b4U, 0x3dd41869bd5ed0a2U, 0x3df153df3e0930ceU, 0xbd3994303db3c3f8U,
  0x3c5d90b03aac123cU, 0x3dc53c7e3d92843eU, 0x3c8fdd83bd38ca36U, 0xbd8a41a53d1fca33U,
  0x3e09d880bd7f78c2U, 0x3d03a257bd79c5f9U, 0xbd85443ebdb7d579U, 0x3e05e9483df2d4edU,
  0xbbdd6a393b9cf6a2U, 0x3df881a03d59dca2U, 0x3cdd80d93dacde88U, 0x3d66fe41bd5399d6U,
  0xbd2b13cbbda599e9U, 0xbd2a783e3d292862U, 0xbdad2a10bdbb9b4fU, 0x3de0800abd4dec23U,
  0x3dad6af33d9e0900U, 0x3df18ca73e0015b6U, 0xbce1f701bcb3313aU, 0xbda015843cec1812U,
  0x3d9cf1103dedea72U, 0x3e03310d3d130fd6U, 0x3c837228bc902dacU, 0x3d6eb7c7bda7ee2eU,
  0xbd7e30fc3dd449b6U, 0x3df3ed09bda4af1bU, 0x3dbe8e3e3d47bb16U, 0xbcddee723d1d22b4U,
  0x3dabe0143d17ed21U, 0xbd6bb3f7bc56d4b9U, 0xbd55d383bdbf7f55U, 0x3ca136fbbbac9895U,
  0xbdb4ade63cf33feaU, 0x3d39e6c9baaddb11U, 0xbda0f1173d3bdf22U, 0x3dc0de063cf29adcU,
  0xbcfbdf0f3dad0b98U, 0xbd3136773d5d065eU, 0x3da3aa30bb0c9791U, 0x3cb18e403d7bcc7cU,
  0xbc161e823d9990aaU, 0x3ca09b09bd1bf82aU, 0x3c31e247bcd51873U, 0x3e0b9594bd898dfaU,
  0x3da67e61bc930b6cU, 0x3dc8e7693d6727abU, 0xbd15b4a63cd23084U, 0xbd586d25bcf6e6ffU,
  0xbd459497bda9f10fU, 0x3e0d11b8bd20f750U, 0xbd8394edbdb0f609U, 0x3cc3bcfcbd403c57U,
  0xbcf786efbbf76522U, 0xbd9b8f4ebd70e9acU, 0x3e066c5e3d2eb3d9U, 0xbcb2422cbd95e3f2U,
  0x3d8a9e1c3df65fb1U, 0x3dc1d5233d4b2dfeU, 0xbd780d253e075f52U, 0x3dc5eede3da59f13U,
  0x3dae022d3ce0a5d7U, 0x3e0ba8d83c8d42f6U, 0xbcb58483bdaea6deU, 0x3c890a3f3d852d13U,
  0x3ba8ed933b0bce96U, 0x3db0a92f3d8ba951U, 0x3a95ba3bbd95f3d5U, 0xbcf28604bd1afbc4U,
  0xbdb02bad3d4946e9U, 0xbd572d0abd15acdfU, 0x3dea27093dc8f7adU, 0x3d9cf1803de401ddU,
  0xbda79a19bdb5bcc6U, 0xbd6cbfca39ac2d32U, 0x3dded26e3dc2d077U, 0xbd8cecf5bd771e33U,
  0xbda028753d34279eU, 0x3dd4d1df3dd0a8cfU, 0x3df2f2303de1fe3cU, 0x3d5b67ff3d35b114U,
